1EBF0B0
014306D
0135B93
1E8677D
00E4067
0130C5E
009C1D4
0080B29
1F38202
1F3248B
1FD09DF
1C85044
1F84B3D
012EF44
007D28F
1F12B27
005E776
1EC63F8
1EC7A62
012882E
1FFF658
00E8D57
1F6AFB3
1F7DD60
0039F79
010F31A
1EB48D7
00B60AD
1F97020
1EA65D4
005B8D9
1F60DD0
1DBA545
001ADC5
006F6FE
0123379
1F05DA8
1F8335F
001871F
1F4A7AC
1EAFDA3
0116C10
00424F5
1D9BC71
1F1BEAF
1EFF809
006CF0D
00621DC
1F6D10D
1F929CD
1F2E2BA
1F5E1D0
1F3260F
1F26D54
1FF1790
0098FA3
1F1D451
1E9D913
1F44AC6
006102F
1FBF0A8
1FC7079
00A08BC
1F35BFE
1EE060D
01649AA
1F6C095
1F54ADF
0047373
00FF95C
1FAFA20
001B29F
0059C00
018B977
014D589
1FC45E7
1EB0ABB
00B5708
1EF46FD
1E9A8C0
0077305
0111F18
1FE31DA
1FD3999
1EB93F9
1F5A522
012EC55
00EC654
008C324
0083B5A
1FDDA0F
1F6507A
1E868C6
005B099
1EBEE41
0059E36
00C31DE
1F6752E
00919D6
00F1FBA
0109E93
00C53FD
1FB082F
00EE08D
1F6EAC9
1F5D476
1F9DCC8
1F454EA
1F0370D
1FACD23
1F26127
00EEBDA
1EBB316
1EE6E5A
00E606F
1FFBBC6
1F9A45A
1FA96BD
01FE030
1FC8142
00BA313
000920C
1F3F7D8
01386D1
1F23AFF
1F85DAC
00710B2
1EC3642
1FFC00B
1F7DEBC
1F7E791
1F13DFD
003EC97
1EBAEE2
00A9DDA
1EEF9A4
004F42F
1F01A31
1FBFAE5
00F0FCB
009E5E6
1FA500B
0114187
1E9F5E5
1F486DB
00C18C8
1F3D02D
1FC05CB
1F2E23B
1EC0F38
00B0539
00D7AF9
1FF303A
0024C19
00EC393
00102B8
1F38481
00D21CE
00018B3
00A6CD6
016F3D7
01D4B92
1F429DB
1EFA439
00425ED
014C5B9
1EBE250
0074D6E
1F93BE1
1F03E14
1F7226E
1F35EDA
1EB925C
003E936
00811B3
0040A73
1FCAD1A
1FD59BC
1F06D93
1F79DB3
1EC0BC2
1F4CBE8
01164DD
1FCC756
1F0F05E
1EB6865
1F34AF8
1FF4E69
1FF1D12
1E94732
010E049
1EE8219
0048280
0029C60
00673EA
1EF0E73
00F9C33
00E870F
013B392
0012ED5
1FCBE31
1DFDA05
1EBB4A9
1E416C6
006846A
1FBA055
00713C6
1ECFE0D
00645AC
1F208B8
1F3939A
1FBC248
1EAAC54
0010C23
01EE2C8
1F2233F
000FA37
1E4C6C2
1F4598C
1F61DA7
1EBD0B7
0070DC7
1F217BC
00478B9
1E8FDAC
006487C
1F68EFB
008BD44
1E8BD25
0093294
0142E78
1EAB0CA
0069434
1DCAE7E
0090597
1DE0051
0130708
1F74D23
1FD96D6
1FF5E59
009EB42
004AE96
0145A1E
00608EA
1F60514
00F7604
020B3B1
1F2D512
1EBC7A9
1FE86A9
1E8D073
009DAA0
1FDA5E3
012B06C
1F534FD
1FB155A
00D83BF
00E0E78
00D9D33
1F3DAB9
1ED4BAB
00D2FCC
0036CFD
1F112EE
00356DE
1F37C03
0009672
1FE125F
006CC3E
00831F3
0138D3F
010D259
013F99E
1F468A9
0115172
005F047
1FF534B
005C238
025B19E
0027FA9
1F42099
1EB0A4C
1F97A0E
00450DF
001EDCC
02B2391
1F62BD9
1EBD336
1ED16AD
1EC3000
00D3F39
00C8086
001B285
1F4B307
009A87A
1E8ED9F
003654F
1EA0857
01373D0
1E7D395
012D728
004931F
00909C8
1E93083
1ED727C
0033893
1F8732C
1F6D145
00AD081
0060196
0084131
002BA5C
1F98844
1F74AEB
1F2DAB0
01038EA
1F8A7B5
0246035
1ECFDE5
1E1C02D
01CDC5F
0166843
1EB4F4A
1F32372
000902D
1EC9A03
1F77DB0
1E923B6
00AA4A0
1F896FC
0138B70
1E2C7F5
013F3E0
1EF9739
1F1A254
1ED87E9
1F8CEB4
00E7EE3
1F281B3
00999F1
1F7C2F7
002B303
016207A
1F4CE42
0080226
00B82EA
1E8757D
1F6E9D2
1F8EEEE
01A3427
011A035
1DF27DE
00633BD
01A10BA
1FC8C9A
1FD3567
1FDB463
1FB92F2
003326C
1E3EFC0
0008D4B
1DD495F
002F515
1FBDD64
1FDB431
012FC33
00A1496
00336EC
004D77E
003914E
002B7CE
1F6C784
00E134B
1F5563E
015FC4E
00AA810
1FEB5E7
01007CC
1E895EC
00F1000
00E56AC
0062372
1EB154C
1E9BD5C
0193B9A
01DDF2C
0071339
1F90E60
1F03CC9
1F2682D
00A7944
0058E1D
0026724
1F1FB3F
009B996
01A5507
00D07D4
006162E
003E4F9
1ECB783
014D5DC
1EA51E1
1F9358B
1E96A61
00D35A9
010361E
1FDB49E
004158A
0073A42
1FD95AE
1FB5AE4
00C3AAC
00B8DA8
1D80760
00AC72A
00BC75D
039BB0F
017F49B
0001AAF
0122EEB
1F2E547
007A973
1EA7396
017516E
01252DD
001C8CA
002B5BB
05AF8BC
1F4C7BF
0061BC1
00DE16D
1F7CD79
0032D5C
0056807
008935C
1FF3BBB
1E9E384
004C1BF
00F3112
1FC0EFF
1F4F0F3
0254F1E
0062AB4
1EBB044
00F6ED8
1DB41F1
0021330
0160F3D
02B55E2
02D695F
1F25085
1F0DCB5
1EB0874
1F99BCE
0027BF5
0250602
0148C2F
0079A16
1FD7B39
0425FA6
1E9A1BC
00C3B4A
1F93B9A
00FB845
1FDD581
016A9BD
1EFE2BA
1FA51D0
1FB9A6D
0130DF5
1EC1D48
00760AF
1EFC662
0127C1A
1F12AE8
1F443BF
005A2EF
1D709ED
005B540
1FD28C3
0250459
0142102
1FA56BE
1F45063
1F08ADF
1F6F221
00F5897
01ADEC9
1F44B67
01F2FCD
007F729
0618B4B
003CC98
1F50252
1F434F1
0009476
0000E6F
0125B25
00A27B9
1FDFE74
01406D6
011044D
1CCEA7D
0104EA6
1F4E490
01E799C
00BF151
1FD47F3
0303491
1DA380F
0033262
0372163
01DEF51
1FC9330
1FDDC91
1F6E90E
0138F8C
1F8CE38
009D41B
0268781
0128730
004BFFF
0120C5D
054AB0F
1F7ED23
0065ABE
00E1466
1EE8DC2
012C743
0071285
005A533
013B2F5
00A2F12
1FBBE6D
1EA4824
1FB3E73
1ECFF30
0373E2C
1F38FFD
00AFDAE
029C139
1D8BF95
00BF41A
0227E9E
1FB828B
1F6A4B2
1FB71E2
00275EF
1F55555
010A52D
01060BF
01B6283
001C164
1FF3441
1EEDEF9
06D11A8
0054D7E
1F1BCB7
003AF04
1FE0646
1F96348
1FFFFBF
1EB1C37
1F61F11
1E96DEC
1FF1801
1E1F59A
1FE6DF8
0067986
029371A
011982B
1EB05EE
0221016
1DE809A
1F9E4C8
035F727
00EF005
00CCAFE
00E0F86
1F74066
00119FB
002CDC4
1F833DF
0223AF9
005E32E
1E9433C
1FFE6CD
0317847
1EADA21
006E3FB
1EB6C9E
1EF3373
1F79347
009B514
00C2398
1F01612
1FD7573
0156B73
00BB750
01152B0
00003D9
0231314
1F19322
1EC206E
023CEED
1DC6149
01312B7
1FA9EEB
1FC5377
034B0D1
0058A91
0095D55
00EA3E0
1FC40C2
1F9AC4F
00259B7
004D700
004375F
1EEEF50
00B3352
00A0DF8
006907D
006F068
1F385BD
1FF7A58
0040738
1FA58A9
0058676
1FEF9C9
1EA94AD
1F0C57B
1FA1F0B
00790DD
00B2AFB
1EB08BC
002F50C
024D78C
1D4BEC8
1EC1FF8
0115BFC
1E862A0
03A0247
00329FC
00B45C5
00458B5
1F37B28
1F5E9CF
1F3610B
1FB9D0A
1FAF3E2
0085134
01F3B1E
1FCD9E3
0137CEE
00450B3
008C0BD
003898B
0054267
00A1B02
0126CCF
1FF8D1D
1F34D31
01DA099
1F817F5
006601B
1F2EAB2
1FDDF49
01267AA
0112291
1E6D49B
0123C3E
1F227C9
01525D2
016D5F2
00EF7E1
009889D
1F673FF
00FA0BE
1F7BE30
1DBDAF4
1F2440D
1E5A026
001866D
1D20151
1F400CF
012A137
1F0C42A
1FE298D
1FDEAB4
0017B7B
005B7E8
1FC60AB
0093CDA
0011FC7
0230879
011C523
0053D33
1E7A7B4
1FF4BA1
1F12B49
0150676
1F61B25
1E8ED2C
1F197C4
1F55F9E
01E3550
1FA8F93
1FE09B6
002A635
004D853
1FB33F5
0013F6E
1F08CF7
1FDEE5F
1FE27C6
1FFBA2A
00D8007
1F08EEA
1FFF35F
1EAFFD0
1EAA89C
0077056
1F7E6BA
1FE4EA5
001720A
1F36859
01DCC78
004D445
1F0514C
1F5B712
001C9CD
00DC9D9
1F1F023
1DF9B4D
00A9DB5
1F0A639
01797B8
00EDA9E
00FF29C
1F93CFB
006289C
1EB4063
00D58EA
1F4FAB1
006CFC9
1F4D1F1
0024C6A
00750B6
1F3C234
0132AC2
01498F5
014F59F
1FD7616
010D41B
0017FBC
1EB8878
001B867
1F1B00F
0205BE1
00F984B
008858E
1E5A9B9
005CE47
011A3DB
00040D1
1F8BBF7
005DF80
1F56983
1F9FD77
00812F3
1FCD0DF
00A157C
1FF19C2
004F884
009C28A
00039FD
000CE76
0058C83
1FF5989
1E0358B
0026EF0
00DFB3D
1EDF905
010AB48
0010A50
000C579
011E58C
1EB7799
009C1D0
1EC4A3F
01062C5
1F8897B
1E7D344
1E6637E
1F26A22
1FF436F
1E86541
00A2C1A
1EF3FBE
1F3C7C2
00132A9
0044739
1F1EFAB
1FC121A
1FDBD90
00EBE3E
00C0E96
1E914D8
0066A42
1E5664C
00671A2
1F4BE39
00790A2
0067405
005FE07
1F2DAF2
011393B
1F77256
0007323
00A6DE3
1FEAA39
1F5813F
002EA9D
1F5FFCB
0070840
1FF1420
0088854
1F2E480
1ECF895
0163D03
1FCAB38
1FF3A6A
01393FF
011F204
1EBCD9A
001539B
00CC5DC
1FA5416
0085D50
1F4F078
0144403
1FE5C2F
00DBFFF
1FB763D
1F02517
1FF6B24
0117D4F
007CD30
1EFFCEC
1EF8752
1EFB75B
00843F7
1EA3751
1FF4DAE
01B3426
000BBF1
1F9DB98
0001EC5
1FE753E
00BA6F1
1E1A6A9
00E421B
00ABED1
1E47202
00D9152
00A67FA
00A9922
1F190C7
00374C1
1F4ED37
1FF3F40
1E5E2BA
1F0CDE5
1DBD51E
1FB19E4
005E8D6
1ECF4F3
1FB17A4
005F634
0111E55
00255D7
005CFE1
01072F8
1FA89EB
1FB51F4
00EBE08
00A7552
1FF0966
0079F31
006355A
1F8CEFC
0003311
0082C80
1F8C0D9
1EFDA63
1EE3C05
0084EB0
1FEC1A0
1FAD728
00E0424
002D335
00E1103
1FC247C
00E3D8E
00E9B5D
0085E0D
0044984
009C656
012026D
01260E7
1EF7B0A
013C244
006BA7D
1EF574A
0075468
1F0CC4A
1FC8A7D
0023BAE
0194902
004D79F
1FD7924
1EF6675
1FF6FEF
1EAB682
1F912B6
00A1C86
1FA74DE
00336DE
01B7752
1E71CBC
1F8FD79
001F73C
1FD09FF
1F8CA20
00181CC
1F60F35
1F265C6
1F48BA9
1F252B6
1EE1B9B
0117582
00CC34D
1EC2277
00FB748
1FF04FA
004B79D
1F43772
00EDCED
1FD92AE
008495D
0156E08
0117632
1F9E95D
1EE01CE
1F7C385
00FF1E7
1EC5943
03C6CAE
1EDB673
1EB5823
011FB0D
1D5B915
1F8543F
1F06EFA
0135DFE
1FFBC8E
006982F
003BB3B
1F4091F
00E3DB9
1F8B27B
004DE99
1F461CC
1F88194
1EB9560
1EF7B2A
0017609
011DBD5
004CEC0
1ECEA54
003B7C7
01169A1
01A7569
1F093B5
1E97FF1
1E95D63
1E8D127
1FE107F
1F5F498
02734FA
1F00CF9
000AD37
1FF385E
1D63CD7
1FF3F35
1EAE0FB
1FCCB76
00B6D6E
00D75B9
1E24E9B
1FFEDEA
0014F68
00A0ACA
1F22550
1E85236
1EDD5C6
1F68525
1FF580B
0155B69
005A0B1
0002E0A
00AE4EB
1F95BC6
1F07DF1
02FAB31
1E86102
007A0DE
1DAAF48
0042B05
012B55A
1DB97EF
04B79D6
00A39D9
1F96C0F
1E20C68
1E348C0
013BC34
010407D
0026EC9
00AAEE0
0001A35
00A4877
1F66B38
01BA3EA
1FA8B6E
0044C42
1F28483
0031632
00F1D09
1EE6459
1F1A892
1F7EAAD
012FDA6
012D624
1F08F64
0023887
1F07504
1EDD76F
1EF88C3
021D6A1
004831C
1F0325B
008FD00
0194B32
1F7467D
0357DAF
1EFCE4C
012C180
009D6E3
1E948A1
1EE9399
00AFADC
004F93B
0165F6A
008B68E
0260FA5
1F22937
01BEA53
1EADEED
00651D3
0081590
0068D7A
1EE922C
011F68D
1FDA74D
00FB121
00E9517
1EF85D9
1FCED09
1FAA754
1F11013
01AD952
0119E2F
1F59FE9
1F7D30D
1F76F81
1EE7237
1F6F39F
1E11B6F
1E2372F
1F3EDE3
1FD8CAE
1F6BDD7
001D349
1FC56FC
1FF5694
0068629
01A69DE
1F85412
1FF539C
0012E2B
1F4CB70
1FA1BAC
1FFF55D
1F9F296
1F6EAA3
00AC1AB
1F7D376
01049C5
1FD99A0
015F423
00AA306
1E8D4C2
1F3F5DA
1EF35F9
1EB66F0
1FABEAC
1F22D43
00E6E99
009CE9F
1FFC42F
01F2ABF
00AB699
00DEE8E
1FABABB
003B0F0
0112506
1F40013
1EFFEAB
0157722
1F25F60
006C126
00B6CDA
1F7A8F5
1EB28C6
0003524
0136568
00EAE0C
00DE61A
004987E
001F3B6
1EB9576
017918B
00A9100
1F047E0
1F97AD5
1F4F879
00EB3EB
1EFC342
1EEE076
0072D07
1F32AA0
00823B4
1F349DA
00F6794
1EE930F
00F9BEF
0033CEC
1FC0F1C
0036BCF
002CA01
1FF5E1F
00B2338
1F0D8AA
1F075BF
1FD0F3D
0149924
1F1003F
004025F
1FBC67A
00D7B98
1EF1F58
002CFA6
00989A5
0003209
1EE6C2D
1E89101
1E766C9
01418DB
0058B70
00E58BE
1E85481
0057671
1E71328
1EFA251
01A2536
01404C4
1E9A6F2
1F1D2C1
00A814D
1F67048
1F5B9D4
1EE706D
1F621BA
1FC940A
0049643
1FBC836
0001CD8
00FD575
1F461E7
1F531C4
1F805A0
1FFBB67
00930BF
00DD513
1FDF58B
0276AB1
1FA365B
1EAC931
1FBC398
00BB634
1F99E99
1FE626D
007E14D
008DD9F
1E84840
0155E27
016A5E1
1EA27A2
1EAD30F
1F0AECA
1FE3A89
002A02D
1F324EF
00C7ECE
1E37B7E
0095BFB
1F34BDB
001B864
1F04FE5
1F687FE
008283C
1F2EB59
0069745
1EF6DD9
0132022
1F8F6F0
003606E
000DE3A
1EF9F43
00DF76C
0005A12
0124246
00B58A3
011C132
0052AD4
1EB97AE
1FD57A1
001F95F
1FE463F
1F57E0F
006AB5F
008FB95
1FD16E3
002C6A1
1E45260
00FC291
0038B2D
1FC7AFB
0081B87
00F3344
1FE77D8
1F611AC
00DFD58
1F46D3C
1F5C8A5
0100888
004E707
1FFABB9
0017CF8
011899B
1E951F2
1F87E23
1F05054
1ED5FB2
1FAB8BD
1F57479
00B476E
003D3CA
1F82AD9
0176DD6
1FD50FC
005D1D5
00E3F0F
1F407AF
00AB97D
01435B1
1F7DBDC
1EF124A
1DD83B6
1FD6E81
0035EC5
1EFA884
1F781A4
004E5CA
1F79369
1EDA89A
1FE6333
1FEDDF3
1ECB786
00E919C
1F539CD
1FDB6EE
1F8A8CB
1FFCFAF
1F123E4
00E0A9E
0022D6A
1FB17A7
0148CDB
00D1A13
005212E
02F35E6
0120D46
001C43C
0012D15
1F5F404
1ED3E81
1FC5A9E
1F6259A
014F162
1E08E62
0135660
01CCD2F
1FB25E3
1E94AB3
1FBBF94
1FD333B
1F9C012
0015077
1F1427A
0062962
000A404
1E9EA89
00FBBE4
1F2D61A
1F1432B
00C10B5
0120AC0
0138CF2
00C9FE8
00E5A87
0125E8C
007A280
037E732
0213169
1FBF6BF
1F4108B
1F14153
000D7F2
0048898
01614FA
01021FA
1F88253
1F97EE1
02CD82A
00DC4A3
1E8F4BA
1FDD373
009E313
1FB5EA1
004C037
004AE95
1E9E94C
1FDAB35
010BFE8
1EA263B
1FEA9A4
1F49488
026E590
00A732C
00BA7B8
02A02EB
1F39134
1EA2813
1FD9C37
0200F2D
02E1656
00CF3E6
00503A3
1F528F6
1F9CA83
1F674E5
004497F
1F2EB67
012A32D
1FB8743
04AA83B
1EBCF19
0067044
002A650
1F448CE
012ADD3
1F74321
006F0C3
1F26C10
1F32ECB
008293E
007E9D3
1F3B7D4
1FD7D2D
02051DA
1F9A0BF
1EC60C2
0023D2E
1FCF726
1ECB1F8
1F6D3E6
02D8125
03040EC
014DE5C
00516F5
00D7F32
00153B1
1FA4BDA
00A2314
1F8B2EA
004E2DB
1EA5493
05D0BFA
1F8ADD0
1FF4E93
00866F0
1EDF53C
1EBDF7C
00C750F
1E947CE
00A847A
00D1E52
1F56EC7
1E6D825
0020D7F
002C46D
0274E99
1EC80B8
003B8F5
00CD534
1F12C97
00F1D60
0046DC9
01C6014
00EEEC4
00B358F
1FE1C41
1F07E4E
013A8C8
00346C3
0172A6B
0066200
00038ED
1FE13DF
05689AE
00B6F06
1F587BB
1E9C610
009C323
1FFF492
00730D8
007482F
1F0EF2A
005D271
1FFE8A6
1FA0153
00DB5D8
014523E
01D6D1B
003DBA9
0009BCA
01190EB
1D52587
1ECBB38
00A2D24
0248959
1FFF7CD
1F5DFEE
0141601
1EA63DC
1FD857C
007A305
013C5DD
1FBA587
00DC929
007CD40
0702F7F
1F26509
000B1BF
007F341
0061CB2
012299F
1EAF9E1
0050FE9
00B8529
0136D41
1F1FC83
1EC85E9
1F3B918
0000741
0184EBE
1F4CA71
1FAF041
0111B53
1D92BBB
010EC72
02A5367
0297408
0023B70
00F177B
1F7EB2C
000875E
1FD0DF8
1FAB978
025C732
1F0DB7C
012D1EB
1F255BF
0473CF2
00BE13C
1EF6618
1F3C084
1F8EA1F
1EDECE9
0018D0F
1EAF0BB
1F94035
1EDBBC2
00A1694
1C49C81
1F7244B
1F34542
0299C44
00C8CFF
1ED1D4A
03A2A84
1EF7551
1FFB258
029B5FE
017D84E
005C7E6
0150AFD
1F22F02
0031FC9
1EF833E
1EECB06
02443FF
1FB23E8
009172D
003610A
053E1AB
1F8EB64
1F69D95
0141D6A
00E3A13
014EBEB
1EC56D4
1F939F7
1FE32B5
1EAE529
00BF27A
1EA6998
1FA591A
1F523D1
04B54A4
0101D61
1F73875
02BA580
1DF5A0E
00A32B5
0187F87
1FE3BC0
1FF1B55
1FD4B7A
1F04FA4
0085882
006ADB2
1ED715C
01993BB
1FAF493
00C0687
0097A4A
05AA245
000A876
1FB371F
1FBF113
1FF2AB2
0114ADC
005F6EA
0021B66
1E9AE55
00C9ED7
00E7076
004FEBF
008B259
0148E6A
0229E42
1F14C84
1FAA72E
013BECB
1DE6D07
1FB2FA2
0332EA8
1EC2CFD
0139364
00894B7
1F5F3B3
00EB290
1F0385B
1F4B37C
012E300
1EA50FD
009C669
0020897
044B723
0096BE2
1F6A034
0089BDA
1FFA831
1EC45EB
012370C
00324BF
0044E74
005F0BD
00FB8B2
006CAD5
1F6CE26
1EF6E57
022CD75
1EAB9BE
1F8BEF4
01CC36A
1FAFF26
0100DC9
00B2241
1FA75F4
02C6AF1
1F8148C
1E96249
009A71A
014D26E
1F4385C
00E00B9
006875C
004FC93
1F9F799
03D6B8D
1F9AA8C
1EE85E6
0137FE9
1FD19DD
01018BF
1ED5CB8
00A906C
1F43E3A
1FB808A
0023CD2
1FA0926
0019246
0081EDC
025C99D
1EB8B3A
1F130A1
004A19C
1CFD24B
1F69847
006FC1E
0197050
009EB88
1FB8B49
00AC889
012FC48
1F1DEA9
1EF0E0B
0186AD4
011ECC2
1FE9D74
1F038B8
055A65E
1EB6395
00B5729
0101442
0149CF7
1F85551
1F08AC9
1F3BD45
00EC727
1F6549F
1EFE8B7
1F89696
003E90A
1E8885B
0267E1F
1EB8370
1EA3EC7
1F595BA
1FC6A04
1F1707A
017432C
03253F7
014D78E
00886AE
1F2F766
1FE4958
00B2FE7
0149ABE
1FE52B5
0119797
1FC256D
1EC588A
02794FB
1FA4157
1F6A210
004F615
1F05E72
1F0E536
1F78B24
012F4A7
1FE386E
004A6CE
0159439
1F267F3
002D6FF
1FF058E
02A54E2
00DB3E0
1F2D3D8
011BCD9
1F75895
005B466
00AAB57
01F7575
1FF7035
1EC1960
00C75BE
1F66067
1ED81EF
0067EBF
01C0965
1F9A645
1FFA007
00DAB95
01B0FB1
0067586
1FDE52A
0084B07
0003D8D
1FAF536
0009388
1F0E1C2
1F2113B
1FE03CB
1FD1838
00DE710
007B346
1FC15A2
1F79F2D
1F93372
1FF9229
1FD2198
1E34DCE
1FB07FA
1FB8305
0199A31
1FE4170
1EE37ED
00735F1
1E8E762
1E9DAED
1F10461
006E55E
006A5A9
00ADF7D
013D14D
01A1A25
002805A
1FA84EA
1F4C254
0081541
000AC26
1F075B3
008365A
004F510
0012A92
1EC13A7
014BC2A
011D6A4
01358F8
1E8AD3A
0126DAA
1F379C2
0152030
1EEC8D8
1FA351A
1F7C0C3
01F7E30
1FF1C0C
1F9C714
00C0DEF
1F350BF
014279E
01330FC
007B011
1FF8AD9
1EA971F
1EDB995
005200D
012D4DB
1F4B053
1F64A32
1FAA78F
1EEEC92
1F61F9E
1EA4E22
00DC777
004B651
00D0B31
0268BA7
1E952E6
1F82EDE
1F5DC22
1F637C8
00410E8
0003AF7
00FF9EE
008EC8C
000943E
1F92B67
00FF2D0
00DDA63
00DB24B
1F764D2
1F10CED
00EE61C
1FB3DCE
000B73D
005E26B
1EC37E3
1EBCC17
0116A68
008254F
00DDA74
007D244
1EA317E
1F9008B
00E9FB2
007EFE1
1F4DF3A
000B90D
0163E49
1F71B2C
000781B
1ED27C8
00B9B0C
1F6F686
1F70A6C
0129977
0012D95
1E87857
00F6A5D
02203D7
1FE720C
1FB1CEF
0111C3C
1EB97B4
1F0FFA9
1F05DFB
008C143
1D75B12
007E09F
1E832C1
1FF27FD
007A432
000C9B9
1F92170
1F80E01
1FDA4EF
01035E1
1F81D49
0040818
1F4E673
0141F23
006082C
00B44E7
1EA047D
1EA5B92
1F28DCD
1F96357
1F4D827
012B7BA
1E8F5E1
00DEE0E
0054E16
00E459C
1F2EA4A
0054ED4
0080803
00FD8FF
1E78CD6
00F7ED8
1FC8269
004B99C
01525E7
0113CAC
009754E
1F1807A
0053721
1FEB790
1F055FE
012D125
1F0F5C3
1FC9F10
00A2A18
00931C8
0091B83
1F5A1BA
1F44EB9
1F240D1
00B4225
1ED3E73
1EAC4BC
010C8C8
1F902F0
00F231D
00A21AC
0007BB9
00BFE39
00E9F0A
1EB4941
1EB89BF
1E441EE
1F6DFB6
1F1E882
1EC41E8
0066518
1FC1F22
1EBE8B2
0116FCE
1F8D613
0018FA3
1F6A817
01060AD
1F8E44E
1EE74F0
013230E
0129447
00CFEBA
1F13F73
00F9165
1EDFC71
000E259
01921B7
019A7F1
1FECF39
000FBE0
0112048
1F792CE
1EDF916
0027DF5
1EC32AB
1EC8B7D
006E4D8
1F8DF27
0004C99
1D81DC6
0098E8A
001667A
00A5C16
1F290B6
1FD6056
007184C
1F4E98B
01285AB
1FDE0DF
1EBAF9B
1EA37DC
00070D1
025FA6F
1EF4674
1F0F1F9
1E7C793
1F9280E
1EA0487
1EA6343
024977E
010C3B1
1F1FB88
004EF62
1E687E1
00FD204
00DD953
00DC4B1
1FC6968
1F95C6C
1EF8706
004CC2B
01664F4
1FAAA4B
1E4984E
1F953F6
1FAB656
00EAC99
011FC34
1FD2BAB
0155AD9
0001BD5
1E9775A
006EF60
1FE432C
022E6B7
1E99FFA
00B7CCD
1F9BF41
00FF063
00BF7F7
1EC78F5
006301C
1E96B35
1FB467F
1FF2CF0
1FC5934
1EF93F0
00D11D7
00D9947
0139BF2
007C311
1FADC56
1F4741E
1F64D58
1FCF9B8
1D1CC7D
1EB79D9
0002D95
1FD2870
1F3FABC
1F432BF
1F4239C
0098188
1F2056D
0107A50
1F09F1E
0289015
011EE27
1F93348
1DE5AA9
1F6232C
1FD2E19
1F778D2
02716C7
012732F
1ECC126
1E0D340
0150DD3
1EE0334
1F89D40
1FB7854
0003577
00D0C78
01C46F9
1F98291
019C3D4
1F4206A
1EDC733
1EA1DC2
0009B0E
1F23783
1FCF77E
1F38DA7
1F16A5D
012F2FC
00DA117
1F54331
1EF282A
1FEAF58
00C60F9
1F2D698
0167FDE
00FFA45
000EF50
005B0B7
1FBCB80
002D61A
0207744
1E2646C
00D49D8
0156E00
00FE8BB
1E8089F
1EE286C
1FA3A2E
1EFDC9B
00BE808
00A791D
0130BDC
1E68261
1ED3F95
1F2DB66
00B4D92
00B74EC
1EDE102
005E28D
006C3BB
00FE203
1FDD2B0
002AFC2
1F67BDF
1FB750A
1FE752C
00D1EB7
005E8E6
009BB1E
001BD38
022D479
012106C
00B471D
1C2D00F
1EACAD4
1FE4554
1FCCA84
001B516
1EBEB5A
0080068
1EB909F
0038CE3
003D73B
0063D0F
1FA8E5E
008E991
1F0F229
1FF3292
1FFE438
001EA6D
1EE5900
1EE5B90
0107BE6
004DADB
005DC7B
00628E7
1F8988E
00E7FEA
009D556
1F6AA28
1F72FFE
1D56A99
01B3996
1FD53DC
003B89E
1FA0FFF
01B8EE8
1EE56CB
1EFB301
00ABD0C
0093D4B
00AC3B5
0028299
01348E1
00055CA
0012F6D
1ED4A3A
1F31239
00F8D7A
00D2614
011E2C1
1EF271B
1EB13D7
00F9A9A
1EB792B
1FC1872
00EB9AB
010D86B
002DEA3
1ED713F
1F62550
1F0AD88
1F67E61
00E9A67
1F13C29
0076664
1F727CC
01C1E06
0044066
1EF13C5
00ABEF7
1ECD272
1FA1DBA
1F4DB34
0158D4E
00C7FFC
1F8892E
1F9053D
1F22C57
1FFF530
1FFBA5C
1E858FD
00E62B4
1EB7BF1
1EECAFE
1FC5F95
1E887D8
003081D
0103FD3
005450F
1FDB245
1EDA74B
006214E
011D752
1F54485
0102D7A
1D57B02
1EC743F
00564F2
027A42D
003EA56
00F1C01
1FC4B18
00E569E
00F8EE1
1EDACAF
0070F66
006B997
0085E29
1EF7603
01F76DE
00CD68C
1EDB54E
1ED4965
1FF1B80
1EF5CBC
0038140
1F51E14
1ECEFCC
00F480B
007F26D
005735A
002C2DF
1F826E8
00107A2
0003468
1FF9117
0161014
1E4EDC8
013CCED
1E6BF30
039A6DC
00A1705
1FD04EA
1F15877
00E755C
1F10938
1EE358D
00AE1D9
012DAB8
1F12266
00DF25F
01D218F
0123E07
00B7C42
1EDD3CF
1E8D469
1F1B779
1FD5FDB
0003AA2
1FDB6D2
1F5066A
0061A1E
002F9F5
1EA3E55
1EFAC26
0083110
0044819
1F3C45E
1FC5D02
1D0C542
1FB8E31
1E58A2C
0304141
019AF52
1F153FC
012BBFD
1FD4F1C
014B4AB
1F54CE0
1F7D341
003B9A8
1E2B87C
1FD6C69
01C8979
1FDCFD4
00DD3C2
1EF8C5C
00DB5D2
1EA1072
001C149
1F20362
0062DF6
00EF8FB
0000AAE
00D233C
1F618E8
000378A
1F87B3B
1FE6255
1FD66DD
001C31C
1E59FC4
1F30FD6
0108783
023232E
1FC1F9F
1FFCCA2
002445C
0048AF3
00D5EAD
005B475
1F96FDC
1FEC509
1E90E77
0060224
013BE61
004FF8A
1EBEF2F
002113E
005DBC0
1EAB2F7
00286A4
00ABDB0
1EA73DB
1F7938E
1F9ECE6
1F675E6
00BE7E7
006FC1C
1FB74B2
1F367C5
0091429
01DABF2
1F3ED86
1F2CF0E
1FE5238
0336CD2
01A8E5E
007A645
1F6F3CF
1F06824
00B7988
003EEC9
00EFBD7
0019CD3
00256F6
0051044
03A23EB
1F824C1
1EC09B8
1EA11E5
1F82E92
1FD40CF
1EAD542
1FFB0EE
012C09F
1FD9D56
1F5BB35
00097BF
1F917AC
1F89357
1FAB705
00F394C
005F7BC
01A67C7
1F613AA
00E2AD9
0041A29
030D6F8
00EFD38
1F35B98
1FBE7DB
1F68BD3
00765B8
008D561
009768A
00A98D4
1ED00FA
004A830
02C7273
1FFA0AA
00D01E6
00F76F2
1F50E83
0135323
006BDBD
1FF2832
0104A33
1ED5F21
00232B0
1F0B879
1F15575
006B00A
014DEF6
1E8DB52
00C70FD
02A13C0
1FA3794
1F461C2
01EBBEA
041C3D3
00CA30E
1ECE6CD
00E7FC2
1EA877A
0104578
1E91708
0110A6C
1EAE450
014E239
1EBDACC
0416BBA
1ED3A27
000F3DA
1F0E1B2
1FA2CF0
00E977D
1F6BE52
1F20039
00E199D
01278ED
00A9BFF
1FC7F7C
011B9DB
0035242
002E278
1EECE52
00F0A7F
021D44D
1F39DC3
01251D1
00309CB
01EB770
01613DF
000E377
1F87BAA
1FF9209
1ED1C5D
1F5058F
0185F11
1EDC268
00BC670
00EA94C
047D198
1ECA694
0067752
1F375C7
0037745
1F7DFCA
005B58B
1F1C972
1F364F6
1E8D628
1EFB90C
1F6CE04
1FC2ECF
1E92ED3
02EB6F5
0100F63
1FD9199
01A1B6B
1EAC39A
004EEC7
01FDB19
0132C9A
008EB43
1FD4074
003AAFF
00A6171
1EC5FB2
1F4FBB6
0201483
00C94AA
01A2710
0138B51
05FEB06
1E8956B
1EB11BA
1FB7FED
1FBB44D
1F91791
1FE449D
0142AA8
1FC6976
0044A18
1FAA397
1E6BB92
1E98251
1F8BDBD
039E036
00D3F62
1F9BE13
0067C1E
1F7322D
1F0A57E
021498A
1F679B4
1F4D93F
0105146
0009526
1F36E1D
00A5F11
1F45873
022A81D
014193C
009701C
0153D4B
0355EC5
0058576
1F75050
001C583
1EC6986
004036E
00A097A
1F80CCF
0061CD3
00762E5
1EF976F
1EA7042
1F10671
014263D
0318F19
0003137
0080970
004BCC8
1D3BB72
1FE02D3
00C7ED3
1F34BF6
013C2C3
1F5B504
1EEB2AE
1F58753
1F9FE58
00E929C
01A5729
002FD98
01BF8F6
0050A64
03EC7E6
003419D
0026551
00619B4
1F0268D
000DEE8
00F2EB8
1EB447B
00873C8
00C55F4
1F9FAAD
1E388B3
1F4E7F9
0063B5F
0155C1C
1F4647D
011B7CD
00E3D13
1DAD18B
1F3152F
01C8222
006459C
0198975
1EF6531
1F854F6
1F4DA42
0009815
1FC75B6
01E3C32
1F8D0BC
0099BC7
00323FF
029500C
00E7892
1FF8F4C
1ED6095
1FD2EDA
1ED9E6D
0093C89
1FEFC82
00E000B
1FBA06B
0035206
1FAAC36
1F81B64
0079C3A
007C92E
1F976A4
1F8101B
024D5F9
1C503DC
1EFF013
1FD4D7C
00E4B0D
01BD9E5
00C4B3C
1EA71E4
00820D9
1F831B0
00434FD
00DA2C7
1E9ECE9
1E92F52
1F7DCD2
035DE3A
00771D2
1F3EEFA
1FD71CA
0047D33
1F4A1CC
00C13B4
1FAD0A5
1F6AC48
1F19707
0045E74
0037249
00A55F7
00221BA
1FEF322
1ED4A12
1F3D940
01EA4DF
1DF9A1E
1FA092F
00475ED
0080951
013AE2E
007122E
1F7229D
1F19129
01585BA
1F219EE
018DCBB
1F2C0BC
1EF4222
1EDFAB4
037D149
1E87E7F
009B8FA
1F68831
1F21D3B
01279D4
00E4F22
00DE784
00841CA
009E213
00DE83B
0134A46
00D0CBA
1F1347D
01CA813
1ECA331
1FCF68C
1FA6F41
1F40EA4
012928D
01C902A
04190D7
00E493A
00D2553
012D370
010B434
011C940
002E0C6
010C4E4
013AD38
01381AB
1F44F2B
0322D4D
1EC50B9
1E92EE7
0008FFA
1F75F22
1EE5E69
1FAED48
00D4647
00686CF
1FB8395
008180B
1F59459
00A92E3
1ED8D83
02D4F05
1FE67F2
00F392D
018C2CC
1E8C4BF
1ED6243
024214D
0350A5F
01ACB84
01569BE
1EFB8DB
1ECDDAD
1ECD18E
1EFCAF9
01B69CD
00D9089
01F185F
1EE66C5
0564568
1EE601F
1F69FA9
1FB3277
0130C75
00CD4DE
1F0C2F8
0089F3B
1F4EF67
0010C21
1F99AF3
009D541
0050910
1F68607
02D1D0E
00BD150
013E6AA
0044EB1
003EEE1
1F2A48C
013597E
02D7D46
1FB0C5E
012F150
1EF7B39
1FC7835
1FF6C25
1EDE9FF
01A05BB
0045F5B
007EB6D
002A497
0404CC7
1FD9EB3
0072224
1F3152A
013A4B6
0027E26
1FE1382
0114F41
0080C8B
1FF28EB
000B3D9
1FA62F6
1F544BD
1F0F84C
02341CE
1FEF097
1FDAC06
00DCC02
1F7995F
1FA0294
007099A
028F667
1F708B1
1F471D8
0081667
1F52E41
1F96466
1E928F7
0000411
1F3E57E
1F7BB50
013B89D
01E0ABF
0079FA7
0056779
013B820
1FBF5B9
0158512
0023778
00E3540
1ED3769
1EC177D
0124014
1ECB249
00CF7C5
1EDCA4E
016F001
1F5D7AE
00BC1BD
000FF09
1DFDD6D
1F9B99F
1FDA698
03A0F80
02A377D
1F58D41
1F1854D
0018820
00D63FB
1EE86D0
1F89816
1F7AC35
1F232C7
1EBCB3E
00D09C9
1E92E55
0081736
1FC0D82
1F5298D
1EBD325
00C6217
009325D
1EBAA28
1EF0F97
00B2F3E
00B19F7
011F220
1EA13E8
0102C2D
1FE60EE
1F630DC
0231987
1EDAE58
01301B2
00022AC
046F2FE
01C7A10
1FB95C3
1F58B5E
1FD5738
005635F
1EE8273
1FF6DBA
1ED1CEB
1F31753
1F033C5
0188662
003E994
1F01E91
0017D37
00A3475
0142DBB
1F45303
000176B
1EEBCA2
008CD96
1FD360B
01AF949
1E880F1
1ECEF8E
1ECE9DC
0130A05
000AE42
01E5624
1EF4E8E
014389E
1E8766B
026DE7D
007CF61
1FAF074
1EC3660
1E8E7A1
1FE8887
1F6B973
1FE0AD6
011CE32
1DCA100
0051CD6
1F5BEDA
1F7F78E
1FD7AFA
1F9241C
1F22122
1F02444
1EC5F1D
001BEBC
1F738FF
00D9413
1EF4F01
021AA36
1F143E4
1F6B051
1F4C9F2
0082755
1FE03B2
008E133
1EB681B
1FCBE41
007D3B3
00A81D7
019A988
014A812
1F086FF
0084159
1FFE15E
1ED600F
1F26EA0
00E0BE7
1F75110
1FE992B
1E0F1B7
1F512AD
00094EB
1F573AA
00D3607
1ECBDFC
00F82D4
010BEF4
1ECDA6F
1FD98F1
001B757
021A207
005A464
004510A
1E8F926
1EE3801
00601AA
00B2371
00D5868
1EA089F
1F8AFC0
01509CE
1F79D35
00BEA3F
1FA8B21
00BF89C
010F81B
1FBCBA1
002F474
0147452
1E8E575
1EA4C1C
1FAE98B
1EDA4B5
1EE4DB8
1F0CC17
00F7C6D
007B7BC
1EFCBDD
008F46B
0079A1F
1F96B23
1FCB5D2
01BCFED
1F3DAB9
010F4AC
1E63DF8
00EB210
1F063DF
012477D
1FEBDCB
1EE38B0
1F7A1FB
0134F4F
1F4DF96
0128068
00F3873
00B0E67
1F2DF48
1F97784
0012867
0061627
1DDE382
0066700
00AB267
1FED29A
1EF3C1B
00238B9
1ED4C1F
012B6B9
1F650BE
0000F2D
1F76B66
1F76E01
00B253F
01BB227
1FD97F2
000196D
00D0C3A
0059094
000888F
1F9DB04
016B555
1F0945C
1F75550
1FBCE20
1EA281F
1FF4AF2
00A4C69
0078699
003DDDB
00094F4
1E5CF90
0105DFF
1D5C1E5
012A426
1F6470B
1E97D7B
00FDD6B
00DBBCB
1FAFF97
00C85FF
00F0660
00F08BB
1F9E29B
1F99F38
013F900
0126B76
1F1A7E0
00A956A
1E11163
1EED7BF
1EE953E
1DAEED4
003F22D
001AA2C
1EF77A9
1DA7687
1C694FA
00D05AD
00320CF
1EE4AD7
005BC2B
1F2457E
1FA4D77
009A4AE
014595A
00BB3E6
0005F7E
00D30E5
1F46E3D
1EB47C6
00F1E3F
1F7DDB1
1EF980B
004E55B
1EE9634
0024B26
1FBF911
0285B39
001F23C
00D9ED9
0012C28
00BC8B6
0088DC7
1D83E59
03E3B2B
01363A9
000FF3F
1F64A41
1F6274B
009C5D0
1F780EF
1F0F34D
1EC41A1
1F451F9
1F23689
00A604D
00A1C41
009A88E
015598C
1F11335
011DF80
006AEC4
1FE1992
1F4EB44
1F491DE
1F64286
0096373
00FC1B3
1ED858F
015880F
1FD05B1
010B148
1F97EF7
1EDAF9C
00952AF
0056EA7
01602E2
00851FE
006E561
1F48C96
010525E
00EAE31
00927A2
1F08D7C
0098517
00AC477
0202B55
00D2723
00A7AD0
0028C48
0026C74
1FDB04D
1ED7A1C
1FA4D57
1F0571C
1F60568
1F3B4E9
1F426D1
0049281
1EF1D90
1FEE92C
000C118
1EA6713
1FF6CE2
00F0822
009D022
1FEF251
0164C0D
00B4F61
00D2EFE
00AEE1D
00CF236
01F7F20
00EED33
008B4EB
007D7B6
0146E3B
1E9573E
1FF084D
1F1C0CA
1FDC23F
1FEDCCD
005BB3B
1FD5702
1F851A7
1F6E426
1E89F40
1F716D7
00CA7EF
005931A
008205A
1FAECD8
1F08DAF
1FD42FA
1FB652D
00CFA1D
1FD4C09
1EECE8E
004A675
018AE71
1FAB13E
1F33ABC
1E18A4C
0027760
01E320C
1F1F356
1EA20D1
00AE5FC
1F78C71
00D30F4
1F045D9
009330A
1D82C31
1FC6072
011AF50
1FF7BDA
010EF31
014736E
00C21DB
014FD2D
1F48D7F
00B2992
1EFD7F8
1ED7EE2
1EA423D
015AD8D
00A418E
1F0B4A7
1F50604
1F03E48
1F6E2AC
00A4252
1DA7898
004B66F
009846D
02B74A7
026CF68
0059B73
1FABC73
00259D8
1FE8B0C
1F9684B
006405B
0006233
1DB8ECE
1F87390
0054A8A
1F8C3BD
1F31039
0048C9C
1ECD8B5
1FDEE2A
1EC43E7
00DC4F7
003845F
1EED607
1ECCB0F
00747DF
0019869
1EE50FB
1F1C94A
004DCE4
1FD4EA6
022ACB2
1CBE8D0
009DC31
1FDE1E8
01976F3
03BC1E6
1FDD765
1EE87B6
00EB7AA
1FACE7D
012E983
01608B5
013440D
1F9CC26
1EB5E87
021C549
1F813BF
00CE852
1EF8CBD
1FA78EC
1E9DD0F
1EFA52E
1FBBFD4
1F8F510
1F7CA99
006266A
00776A5
1F48597
00DA9D4
1F3D7BB
006200E
011945C
027BCB0
1DB6282
00D60E1
1E6127A
01B2100
02AF853
1ED9D80
004123D
0117E57
01030AD
00579E4
1FA521E
0126EEB
1DA40B5
00F9BC3
0045B5A
1EAF864
013BF26
00F768E
1F4AB01
00A387E
0095934
1F23B1C
1F0E42D
000BAC9
1F7E30C
002907C
1F8F29F
1FD4586
1F53F79
004D422
0035E35
00F00C5
1D834D1
00CE3D0
0068355
03315CE
00865F6
1FACA00
013543E
00A5957
0088E5F
1F8CA9F
1F69F8A
1F57A32
1FF41CF
1F9AA19
00E6D52
1EDF779
1ECC27B
1F4BA65
1F18700
0043D1E
1F263E5
0115A8A
1FAE33A
00D76DE
1FB1AFB
0178506
1FF7959
1FA30FC
1EF99D6
0072521
00FAB3C
1FF1DE9
004EEBB
002E452
1EBFB68
017DE07
010A6B5
1EE3F69
1FF1AD7
1F94F7F
010DE52
0100727
1F93F23
0043674
1FE222B
1F9CE8D
0164ED9
010E580
00573CC
008A5E9
1E9AB96
1F12BEC
1F37E63
0035DD8
1F8BE93
00E0D2F
01103E4
009384D
00BAA7F
0074A4A
1FDD312
0017C6D
1F66A12
1FB7567
0059E97
0113AD5
0108BEA
015BF76
00F67AA
00FD1DF
014DA59
0044C8B
1EBBE5A
1FFB60D
021E2DE
013E9D9
01D4BD9
1FCF3C4
0282B68
000DB5A
01036CC
002E376
1EBE975
1E9FFD3
1EFE1BA
00DDF9C
1F037C4
1FEF858
0002C86
1FE1BE0
1FDE3CB
1FFB20B
015667A
00E1634
1F26925
0077C19
1F06DEE
1EF98EE
00C8AD1
014F00C
010EA4B
01077AB
1E96DCB
0004261
1EB956C
00FD785
1F27731
1EB4C54
1FAC5B2
1FB297A
013A1AE
01235AC
1ED3AB0
0102FC7
1FC2448
0145CD5
0056FCB
005DAA5
1FD576D
00E58A5
0052A42
00AB926
011666B
0080263
0048D6C
1F932BE
00DCDF7
01B1B9A
1F1EF88
001EED8
1F580CB
00E5507
0068027
00DADFB
005E65E
00EB573
1F83997
0145FC7
00C971D
014DA50
1E07AF1
1F2100B
0055166
1F41A00
00F9EC1
1F45A6D
1F73E38
1F921BF
1F7AC0D
00CF040
00AF96B
010A788
00D4C3D
1FCDCB9
1F942C8
1FC533D
003C6F7
00CA334
1FCAFB1
012D8F5
00498D0
1F94CD8
1E4A6D7
1F7E14A
00C753E
1F0AAD8
00670BC
1FE7AD2
00756A7
1FA1C2B
1FBB7E5
00B226B
1D1E8F5
1F92227
001C53F
1EE097F
00A7C97
0117EA1
004BBE0
1EAD3F4
00A0980
1FE6886
01430D0
1F68DB7
1FB55A0
0267B1A
1F3A61E
1F29FDB
1F6959B
1EBE3C6
1E88442
00939B1
1FB5831
1FD6468
1FE727D
00D56E0
031592B
0162080
1FFCBCA
1E85701
00BB128
1F27ADB
1EA8FCF
1EEA8FC
1CD5F64
1F6152D
1E2DE3D
013F52B
1FDB129
0053BF1
0012970
0045067
0073200
1F251E2
1FD5FE0
1FC1C4F
00002B6
02D6E88
00FD0F3
0056AF5
1D45012
1FFEE2E
1EA17E7
1FE52A6
1E876DC
002E118
1F0505A
008109F
01F80DA
0117F40
009003B
00301B0
00DF030
1F91718
1E4E9C5
00828C4
1D4AB50
009F540
1D4A54E
1EC7356
1F3908C
01453C5
002599E
1EDBDCD
012C7DD
0087FA4
005AC4B
0003F7F
00FD3B0
03DD680
0012F60
00CAC42
1C80B8B
1F2DA99
1EDF313
00FB375
1C71D3C
1FCB6FA
1C3DDF6
0003CDC
0443A70
1F956F1
1EF85CE
1E8B7C2
1FE16B1
1F907DF
1DC2AFA
0150138
1B986C2
012C145
1BE259A
1FCA222
1EE1949
1FC6C00
0081381
1EAC0A0
1EEAEDC
0136983
1F6BF7F
0032AF1
1F08178
0458A6D
1FF432E
00A6B10
1B664B3
007C2CE
00FE8E3
01711FF
1B516B2
0124742
1CE4AB5
0128827
046AA47
1EB1202
1F3A0AB
1ED8488
1FB02CD
00908DF
1F59430
1EE1E50
1E171CC
1F1CCB4
1BBCA79
01202F9
1F26B83
1E896F5
000534B
00807F0
1F4B87C
00066C9
1F31A26
1F56CAE
1FA143C
0400A88
1F0B9AB
1FFEF87
1D96662
1F750A6
007F21A
019B814
1B4265C
00CC077
1DE34FA
1FF96C2
029C4C0
00E5FEA
1FAEB24
1EC20CF
00D4F38
1E947AF
006FDBF
1EAD36E
1DB738B
001FDB2
1A7B536
1F040AB
001F076
1EE6D5D
010EF11
002D814
1F8D17B
1EFEBEA
1F42F1F
1FB8BB2
0049669
02A4C03
00129AE
006EA99
1DF0E75
1F8E7BD
1ED0E75
0129E07
1E1CFF3
0046436
1D7C0D4
1E1D6D0
010DDF8
1F17DC7
006B65C
1FEF604
1FC1944
1F196F0
003887C
1FC8049
1EB5FF8
1F53152
1AD268D
0084C04
1FBB696
0049845
0057FAF
1F85822
1EC396B
1F09659
00DA1F2
1FBF704
006C26A
030E22C
1EE7456
1F1C5F4
1D17840
000A1ED
1F7E5C9
1EC2730
1D4BAA8
0134031
1E7DD86
1F8ADF0
0275CEE
1F50372
001D25E
1ED800B
1EB0C15
1F38948
1F9E093
0027B42
1F3B611
0071683
1D300B1
1F41B12
1FDF602
0068CD7
1EB3129
003C4D6
008CD5A
001CCBC
012971C
0067D5F
011FFBD
01E5FBF
00DDC16
1EDDA49
1E02783
003086C
1F5C95A
1EA1581
1F3C36C
00A9B05
1F103FA
1DCBA79
00BC971
1EE704F
1F83EC6
1F35657
012FF41
1EE7B21
1F23A49
1F85340
1EBF048
1FC1845
1CBEB2D
1F23A5E
1FE7184
1ED4B82
0037BD0
0093FFC
1EEACAC
0025BD4
1F1E886
00DC7F5
0004C46
01B322B
007BA5D
1F5B386
1EE5831
1F5B564
00FDF80
1EAA007
1DDD57C
1F43DEA
1F358B8
1CF47CA
009397B
1F90108
0111E38
012BBAA
0082372
012C6FC
1F771AD
1F92A41
01BE1C0
1EDFBFA
1EBBB46
1F4F9E2
1EC2354
1EB2B9E
1EC96F6
00B75C2
012E064
1F4BF24
010BAE5
011836A
1EFBCD8
01270A7
1F1E8BC
1FED83C
1EE867C
1F450BA
1FFE843
1EF36E1
000794B
0060E6B
0039D38
1FE1F1F
1F831B2
1F0BA12
1FCB10F
0097ED8
1F90F97
1F50824
1F8C035
1F32568
02269AE
010181A
010DB97
1EBE91C
004824D
1E926AA
1F65E00
0016E59
00FFF9B
1F3BFA7
1F95952
0070E32
01428C6
0098081
00BDB45
003C2C9
01BBF57
1EE6205
013DCF5
1DD38A5
1FE4FAB
1FF63BE
00A9122
022D038
00713E2
1FC365F
0092A01
1F69D7F
1FBC4A9
005D067
0060287
007A069
021A2FA
1F850A0
00789FE
00C8168
1FB1FF3
0074B00
0039BB5
1F99573
00777F4
00942E8
1F8C6F1
009F4D3
1FD761C
1F58D0F
00E76E9
00CCF0D
015FF70
1EAC7B7
1F213EE
000D7ED
00153A8
00BA790
018EB60
0145285
009DE66
1F2AFD5
1F49782
00F70B1
00E725D
0028F36
0027D74
0117E05
1FBCD7D
00D7C40
020780C
1F5DE74
1F2FDBF
1ECEF0F
1EB4CE9
000D844
1EDD09E
003C588
00663C1
1FE5F29
1F4147D
00DCA4E
1F15E2B
00A6B81
1FAD1DE
0105B5B
1F9E467
1F7AF5E
1F31D29
1ED9C30
005FA96
02B8727
012198D
1EF119D
00EC2F5
011D723
012DFA5
1FA0AFF
1F1100D
0048179
1E635F3
00DCD8B
01C6A6B
1EBD887
00D365B
1EA841D
0066CD7
1F9F9A9
01091C0
00AC0CA
1FD76CD
003764E
1F42465
1FFEEF4
1FDEE7B
00D1498
0047091
0055041
00EA802
1FFA5C8
1E53E34
0120A01
1EE4DEB
0164C1F
004726A
1F87E10
1EEB58C
1E8FEA8
008F719
0019E1F
0056B66
009797C
1F12F46
0014EE1
005EF21
00A28DB
0017C8C
1F8831E
00C37F5
1F10422
00D47C1
1FF3109
1FC0BDC
1EE5B49
00567E4
01FDFE3
1E8CD4D
1FB4847
00734A2
005ED0C
1FEE353
1FF0D7D
1E0C2BC
00AFEAF
008C326
04157AF
02134FE
0141AAE
0100F58
1F66321
00C0087
1F03A1E
015827B
1F2ECFD
1D7F757
1EDF398
01DE3D4
1FF0B8A
1F51424
00C1B01
1FE2CD7
010E933
00F0058
00A650C
1F64175
00FDF99
00564D5
0066641
1F725B7
1E827C5
00BF310
1F6FC6F
1EA08CE
1FFFFD2
1FB31F6
1EFB180
005178E
02B8323
01D27AD
0092DD4
00A30B5
001E365
1F03A85
1ED4D66
1F9B13B
1F3F0B8
1E8D8A9
014D9CC
0343BF9
1FC76E8
0128E2C
00E25A1
1FFAB35
0026CD6
1F0F665
000313F
00F2935
1FB84C7
1EF2564
013B0B6
1F8D22F
1EDDC20
0120A8A
008BCF2
0140C8C
0120010
1DE09B2
007760D
0043C04
03C0FD6
0171810
1F48468
0012B30
00F5429
1F03FDC
002E1DF
1F7B541
1EA6E1C
1E44F35
1F34E99
004CCEB
00CA676
1F7B1CE
0063B5A
1EEBF86
1FD4FC6
1FCDB93
003E744
0119BB0
006409F
1F80D5E
01D555B
1F582CB
1EBB634
1FC4C57
002540B
00CABA1
023026F
1D40014
001ECD2
1F1E314
00F0237
0198E4C
1EE9398
1F1917C
1F2EE54
000E20B
0085158
1F65B85
1F36923
1E675C5
1FC4505
1E2D5BF
0050ACF
1F2EF38
1F4C6AE
006B06A
1EAAE7B
00A77C9
009FF91
1FDDC7C
1FB6E71
0049849
02FE065
1F92F5A
1F8160B
1DDA981
010020B
012A008
1E6DC7F
0000DA4
1FCAC0B
1F137A7
1FE552C
1FFA89D
004F905
00FA053
005FFB2
0130D42
013F211
008CC27
001F27E
1E5121B
1FA564A
000160E
1FF633C
1F6F71E
01351E9
002BF02
1FCC95F
1ECF15F
00B1E35
00879BB
008BA7D
004BF9B
1F76376
009570F
00B5E35
00DDE05
1FF9DA3
1FE19B6
014951A
00C8704
1FA19AB
016AE2B
00342D1
1FF1CEE
1F7C92B
0051E33
1F0D464
1EC4256
0104A63
018FC24
1FA8A4C
1DA7FBC
0154C64
1E7FF9D
1EE5D69
005C851
1F7740A
1F0F29E
0160958
1F0A4B8
1F29927
00D84BD
1EE4E98
014650F
1F7EC0A
0140A99
0125DEC
1F940B9
1EF1F3E
1F260D4
019E692
017DC57
1FF4FAB
1F77C9C
013787F
028FADC
1F65A13
00056FC
01136A8
00E6983
012279C
02209B3
1F9610F
1F044DE
1EC2E3A
1F8316D
00B78C2
00FDF4E
0141E24
1E9E8FC
1F88C1E
1E9E667
1EA8F93
00D188B
00FDAD3
00C4F13
1EB98B7
1EC37E8
1F9CF47
1FD8C5D
1F32C63
1F86108
0159482
1F6EB57
1FB43A3
0067BD4
1F7312A
0151BBB
1EBF643
1ECB176
00E5412
1F19377
00823D6
011B1CC
1F44418
1F6B9F9
00BA788
01E615A
1F0403B
00ED592
1E86136
013F47A
00DA76F
00DFD1B
1F1B277
1ED00C3
0059707
1FE4D1C
00DB47B
1EA6F9E
1FADCE8
1FADCB0
1F9C45B
00D6779
01B41FC
1EDDA7D
1F3EF1B
1ED1D9C
00B9CEC
01699B7
1FCC77F
1F99A32
1F58CC6
1F78E84
1F3B771
00922A2
1EC39F2
1E3A039
011133C
1F14CAD
00CDB9E
00D78D2
1F15AF6
006DB90
00D63B7
00FB112
00C9396
00765D2
1E9FBD4
1ECB414
0256148
1F0DA23
006C9E5
00FFDCA
00BD743
1F1F6A9
1EFA7D6
1FCD12D
0060AEE
0018877
0366330
00FDAA0
1EB7A7E
1FBF995
1E8206D
013359C
0138962
003A765
1EDE5B8
1F38DF6
00217C6
000BC69
1F67DB5
1FCF7CA
1FE477D
0079DFC
1EE1849
1F98ECC
009E2FC
1FEC6DF
1F196C9
1EFC6E3
1F90496
1EC1B32
00CC10B
012011B
1F35CC5
1ECB6D6
0093B08
1E4540B
011855A
1F943A6
0146C54
024D771
003821F
1E9A147
003D06A
1FCC7B8
00545BB
020A241
1EE9A49
00EE1A1
1F77C07
02396F6
0045FB0
1EFF09E
0112C40
1EDED8F
1FE875B
1F702E1
1FF3A65
1FA4FD3
00E8287
00381B0
1F2BE39
1F48350
013DFE4
1FF05C5
1FFEF78
0092D5D
006C2ED
1DE0CA5
0080466
1F8C764
02E7521
007303C
012A18C
1F42215
1F49869
00B8DA4
1F50E21
0179B1C
0096A62
1EA141A
0044C1B
01F3AEF
1F8A4DD
1F87ADF
00EA7D0
013D495
1FA1612
00E0680
1F0BF4B
008795D
008DB49
00AB748
011AC71
1EB4370
003BD43
007E9DD
01407C7
1F3FF45
018EDA4
1E9581F
1F7FF4B
1FC2682
01B37CF
0184422
1FEDC28
00D82A8
00343D9
1FA1976
1E8D014
00F9155
1EF2120
1E7C0FB
1FFBD20
00D2466
1FA0CA7
1EDF0B6
00B776A
00A1585
1EFB891
1E95CE9
003614B
00C8EB6
1FDB377
1FB94C2
022C6CF
00C291E
00CC2E5
1E96290
0052EC7
0050F30
1FBAC23
1EC0506
1F359A6
007AEA6
00922F7
010CD53
0018AB4
1F863B5
0108012
1F59A22
1FA17A6
1DC6454
1FE16C0
1EBF653
011957B
004E903
1F9DE11
008115D
1F39B91
001A30C
00B4986
1F61A63
00618C3
007021C
1FBC170
014AE44
02656D1
00BBE93
00C42BF
1E6C823
1F75890
1EA67FC
1E8DBB7
0100B18
1FDBC36
1F8FCF1
1EF9BFD
1F9F367
1F83914
1E92B18
1F3CCD7
00C77E1
01293EB
1DB62C4
1F402FF
1EE0F82
1F142D2
017F58F
008702D
0113F07
0058F19
1FA06E4
013E4B6
006DD12
1E86D11
003CC2F
1EAE652
00B18D2
00C0AFA
00505A9
1E8DCC5
1DA3892
1FD7413
00C2AFF
1F30261
1FB0CC4
00DFE16
0095535
1DEFBEB
1E8D275
1EAC7FB
1EB6D13
004F91F
1F903C7
1F9193E
1F4832D
0103F7E
1FCAF93
002A30B
1F236D6
1FF7919
1EC4BC2
00478C4
1F19B02
002C6B4
1F9EC0C
1E9311F
00A44B3
1F3C4D3
00BA3E3
02EFA17
00F94E9
007A577
1EB65D0
1EE2681
00C1618
1E015B2
00B1184
1F2985D
003A532
1D7D584
0036788
1F5F04D
1F0D533
001E641
1FCBB0A
1EC8256
1DFD3E9
1EF7EA9
1F9F59B
1FF319D
1E39497
003292D
00E6F5A
1EC202A
0069C0C
00CC779
00A4B36
1F035AC
00EED53
010BF91
00F484C
029F4C4
0142738
1E8FE4A
1E22F42
0019B3A
007A9C0
1DAA541
0014C10
1F1A24B
1E57B32
1D74340
00935F7
1EC5E0C
005F8E0
0127AA8
002FD26
00C56A7
1E1389D
1ECB0A8
1D589C6
1F1D94C
1D2C6BE
1FE2BCC
00B617E
1FD78C2
1FC2C29
004C9BB
0040898
1F7D542
1EA57D2
0100838
0073D90
01C763C
0016D5D
00605A7
1DDC9AA
00E5413
1F3A7A8
1DEA393
1F9CB0E
006FF0F
1E65A9B
1D708CE
01E92A8
00E3567
1F1729C
0123AD6
1FA7707
1EFC1D9
1D658AE
1F3F389
1DDC2BB
00A4421
1D25227
1F3D37D
00A8D2A
1F8478E
01084E8
1ED5536
1FC5058
1EB4BAF
1EB8046
008E2D9
1F55E06
0418F66
1F85095
00984D0
1E2F180
00513EF
1EBEDA5
1EDF969
1FA9CB7
0036BB9
1E680E7
1E5C10A
02A0AD1
1ED7DC3
1F3A2A8
1F4FD47
0103666
1ECE72B
1F03855
014CC32
1F59F45
00D0AC9
1C08BA0
1F4AB1B
0046520
1F8382C
01345A4
002C314
1E988E5
1F3DFBF
1E98CC6
00811AF
0067429
040DFF4
1FB45D4
0042F9B
1E0CE33
1F57E8D
1ED6BF5
1D4C1C5
1F48C83
011066D
1EA6944
1DD511B
1FD0A02
005E830
1FAD554
005CC64
1F250D4
1FEAFC8
1EF6D2E
00BE52E
1F3DAA8
0071A4F
1A9FD24
1ED1F60
1F90855
00E995C
1F3429F
004FD59
00678F8
1F3FF34
013ACC5
005646F
00BBED3
026D60F
1FD4DEA
00E2757
1DD1DFF
1F69CB1
1FF4542
1F0D5BB
1ECF5A2
1F92E28
1E4E043
1E2D69B
00D3FA2
1FF01AB
00BC050
0023CD8
0035167
1F10309
1DDDDE9
1F0DD01
1EA0DB2
00F501B
1A4E7FF
0002E1A
0101B97
1F066C3
1F20331
1F7F611
1F67018
00E1A23
011687D
00CC92B
0106D30
0493237
1F0C657
1E8D5EC
1C67EA0
1FECA6E
1FB9F0E
1DB68CF
1EE4619
0090C0B
1D73332
1D58251
00C5082
0026EEE
1F3DE30
1FACE6B
1F5D266
1F33A4E
1C71892
1F72A9D
1EC5B14
00D69D0
1B6BAE0
00E7C32
0094AA3
1EABB88
1F592D0
1EBA4F8
1EF009C
1F72EAB
00DD19A
007D3C7
1EEFF65
047D70E
1EA3AE5
1FA5FB3
1D1DB72
1FB36B0
1FE7382
1EFF047
1E9DD1C
008689C
1E20BC8
1AC09BD
1E730E2
00E4D75
1F57A09
0068EC2
1FE5F27
00461A5
1D50F0B
010C0DE
1F76C2A
00F52CD
1C0B765
1EFA8C2
0047094
1F12BDA
1F1A9E0
1F5D12C
002FE06
1ED7C06
1EF5EF8
00626BC
1ECB0FC
01B4DB4
1F8B802
1F786FA
1C25AC5
013073A
1FB8FCF
1D54D1F
1E89A1F
004FB43
1D2C8A6
1CE6B47
007867C
0157DB3
1F34B9B
1F53524
0049C88
1EC961B
1F6B26E
00DE2B5
1EC6672
00955DB
1C26D10
1F05705
1ECA84A
00928AE
00D5B0E
1ECD186
008D7AA
0033185
1FA2B57
000FC54
1EA772C
0372D95
1FEE9A4
1F832D1
1CE3A3C
013DC75
1FD546D
1EF9504
1FBBBBF
1E9B830
1DE69C4
1DA5B54
005BCC1
1F94CB0
1EA795E
0015938
1FF2CA4
1F73B62
1DB2A7B
1FD1005
1E47F41
1EB1FF4
1E7F591
1F9A795
010CE43
013C4F2
1EA507A
1E9E1D8
1F73159
1F0B790
1F91511
1EBABEA
001F08E
02F9816
1FFCD7D
0088FF9
1E5BBEF
1F070E3
00990C6
1FA85DE
1F43252
0073C31
1EFD7F7
1E3F3BD
1ED83AF
00A1D62
1FADE07
1FBC27D
002E7AE
00BEEF0
1D70418
1F4FF72
1E4C960
1F8C77A
1D1C840
1FB5BB5
0124C75
1FD8E95
00D7C0F
00634A8
00EC5E0
1F2EC96
00FEB64
0001C5E
0088ACE
03EEDC0
00FC6EC
00DCAA6
1D265C9
1F17E62
00A3DF1
1C90493
01553C9
1F24714
1E82E64
1F48DDE
1F9F891
00763B2
00CBCBB
1E967CD
008EE06
1F3BF66
1C906A1
1F28A46
1FCD7B5
00FE61E
1EBD49D
1E999C4
0061FB4
010C947
1F28F40
1F26F19
1EF1D57
1F18346
1FA5E02
00DFCC5
1F47570
040026A
1ECFC7E
1F75C1E
1DBAB43
002C209
1FBD12E
1B5FA72
1EE2D69
1F26DEE
1E36DFE
1EDD622
1EFAA78
00542B0
0020E63
1FEE6D8
1F4AA72
1F4CF8A
1D5D66C
1FD4734
007C000
1FA0C9F
1F9007A
1F97BFC
1F4EFC1
1FD8D97
00542B1
1EEECBE
1FA5BC9
00DECA8
01357E3
1FFF02E
1FCA541
027AB31
00B7FC5
1F95F42
1D6C92C
1F8AD1F
0085F2E
1D4847F
1EBF730
1FB547A
1EBD74C
0072AED
1FF643D
010D525
00F4F25
00A71B8
0092A37
01206E9
1F6F1D0
003A6B5
009FF5D
1F0B665
1DEF6F4
1F85EF2
010A285
1F61C1A
1F6C25D
0152B70
1F126CD
00ED700
00E03DD
1EED2FE
0005C7F
020BF3A
00BDA21
006E66C
1E26567
1EA7D6D
1EE74AD
1CC804F
0167494
1EDFB43
1F1443D
00893F6
1F75079
005C710
1EA04DB
005642B
1F22CF6
007BEBF
1F17713
1EE809F
1FE8D66
003E536
0066E31
0077658
1F777C8
00BBF98
1EC6353
1FC3E65
1ECEAD4
003D881
1F33FF8
1F5B60A
007FA44
1FCA444
0102DDA
1ECC7E9
1F5B5E7
1FAB338
0039C1B
1FEA5DE
1FACAFA
1EC243B
01420E3
006790C
1F649E9
005C9DF
1EB9524
0042E26
00FC73A
1FF2641
0071AE8
0068700
1F2BBA0
0037847
00669FE
1F1B128
1F243B2
010CBB6
1F7BB3E
00531D1
00B6B7C
1E97744
00FB18F
1F67EB5
0155D66
016DA5D
1F9BE38
006F2CA
006DA99
00B40D4
1EB3119
1F4400C
003BDF2
1F5D999
0064A36
02E4278
0080A90
0088F55
00A4D9F
1EAF780
014FD68
002DA06
1F17A26
00B25BC
1DF4074
1F9A6C9
1FA7C29
1F29E28
00A9C17
0042AB4
1F06502
1F643AB
1FD7628
1F58878
00EAD32
1FECFF8
01534FA
00EE4F2
1EBAFA2
1EF825E
1EA7C28
1EA6A1F
00CB710
00420E9
1D8AB08
1EAFEF3
1EE702E
02BF910
025DF84
1ED3042
1E893FE
1F6D8C8
1F1B38D
1EBC5FD
00448BE
1EBFD4C
1F7FA67
1EC5F27
0323336
00F49C8
1F9F5F2
1F50FA6
00F7EA1
1EC1803
008CF38
1E92430
1EF6A0F
1F1D466
00101E6
00F061B
00B9DBB
0012960
009AA38
011A9D0
1EA6F7A
01C29DE
1DA50D4
0084307
013E9E6
0329DC5
01BB8FE
00EA49E
1F4EB04
00081B9
0104584
1F45D2E
00918C9
1F823E5
1FBD49C
1EDBF23
031B3E3
00FB76C
00CD067
001C15C
1EB3E52
00C7F8A
00FDE98
00E5657
1F26DD9
1FCAB56
008EF06
003A0F6
1F0B7AC
0127D9B
008BC5D
1FA348D
00107C0
1F786BD
1F013AF
1FD2D5C
006B11A
00EC515
001563B
1ECF358
1FEE41F
00788CB
1F45794
00FF999
1F372AB
1FA3D9B
1F303F1
1F7AB5F
0072011
012CFEA
1EDD7DA
004DD0E
00E9FFA
005C494
1FE486D
1FA4204
00F992C
00BFB7A
007EFDC
01DB6ED
013BD70
1EBAEF6
1F1DA45
1FB5387
1FD40D1
007825B
004F96E
1F4CB06
1F4347B
1EAE092
00A2BCF
00AEBF5
0109F81
002E91B
1F5CAED
1EC0564
016A728
00E2CD6
1DB3D6A
01138D4
1F0554A
1F5018A
0040281
0019B9E
1FFD85B
1F2AEC9
0103976
00E48F7
0030A69
1F8DD62
1F1FC1A
01BDA87
0035348
1EE3D96
00FE2DA
000456B
1F04DE3
1FE4F52
0165978
1F6FA99
0080C1C
1EFB8EC
01B254F
1F2F826
1EFA014
1FE6531
005BE83
1FEBD50
0019B7A
008F0E4
1DA694C
00689B1
00C4E61
007C06B
1FD8EBD
004DCC5
1F4A156
1F18634
1EEEA44
1FD1C83
1E8F293
1EDA2D4
011BAA9
00349D7
1E98666
1EE5148
1FC7FDB
1F9A271
1EB9655
0085278
1F69EF1
0029F06
1F1E10B
01515A2
001E073
0047721
1FB5FCA
1E7E0F0
1FC5832
0138547
00E289E
1FC4A85
014BD84
1F1B8EF
1E91013
1FE99D0
1F1B464
00FF613
00B61CF
004E8DF
00C3DE7
00EABDF
1E9456D
1E8A472
0129444
1E6F5D6
004C228
1F8D2BF
00395FE
00A757E
1F03303
019CDA1
1F1730A
1F4360E
000CA7C
0090F2A
1FB1493
00B362C
1FF60C2
1F1006B
1F5D460
1F62309
00E5349
1FCC233
1FEF663
1FF3D6C
1FC946B
1F2A7AD
1EF0DF0
00DCF31
1FDE283
0022DEE
00DC0F4
1FE01B1
1F84227
1F1E893
0154422
1FD219C
1E8F3E0
1F2E8C1
0027384
1EC825A
1F9E1C5
1F84F3E
1FAFE1A
00F1296
1FB50DE
00E6D8D
001C6BF
1EA3821
0139595
1EBA6DC
014E1DE
1F8A3AE
0018316
1EC9827
1F93E41
008C947
0044860
1EF74A1
0101B75
1F38C5B
1FA0DEA
1F4C6C3
00D3910
1FCFB68
1F5D9A2
1F96B71
1F0ACA7
01E782F
007E04C
1F6109E
1F4E297
008DA9D
1F0F2E8
1FBEFD8
0082C49
1FC023E
1FB5F45
016C849
00A517C
1F8C1D5
1ED77EE
1EC3127
1EA59CA
1FE2454
01129B0
1F73B91
011881C
003309D
0212A79
1E9BA04
1EE47B8
1FBBA22
00EA775
1EE3EA8
1F7D241
000B2FD
1FDDA4A
00F9238
00B96E9
1EFCC03
1F949BE
1ECD8AE
002CE5B
1FFF85E
1FE78C5
00B69EF
008A1B0
1E9FC3E
00ECFAB
0336E68
000B077
1FE8216
1F8E903
00C28DF
001C76F
000C5E4
0141671
1FFC6C3
1F3B77B
1F6C4E9
029C1BB
1ED480A
00F4C97
0097B24
1FDA7C1
1F3C527
012A796
005D7A2
1F1B5E8
1FE65E5
1EDE295
014EE62
00C90BA
0055EB5
003067C
0081B9D
1F1524F
1F939F5
1DB98DE
0077504
00D1C08
004371C
00DC66A
00B0708
0148994
1F1208A
1F7270F
01367DB
002D3DE
0152549
1ED3753
00B7CD0
018120A
005E9B5
1E87F62
008A015
003DC6B
0149CD4
004AA5C
009C2AC
0100852
0020C2B
0062249
007D9BF
00C082D
002075C
1DAC453
1FBF591
0013385
1F4B7FC
1FD28FF
004CAD7
0054C74
00D59A0
1E7E45C
0065E49
1FF0780
000AFDB
1EB230E
1F54939
1E4AFEA
00622DD
1EE0D4D
00B994A
1FB1D45
1EF61FE
1F09F73
00C441B
1FD0AF3
1F2251A
1F64135
00E0D35
1F7ADB4
1F14557
00E78EF
02155A8
00D84AF
1FE55D3
1DBF8DA
009ECBA
00E82FD
1DD44A2
0040DFB
1EC5314
008F08B
1E5AB6E
1F92561
1EB800F
1FA8F45
0134A87
1F471D1
001E148
1E16AF0
00AB5A0
1E03DAC
1ECEF53
1E08222
0135566
1EAD1AC
00C4F9E
1EA1ED1
1FAE86B
1FB0834
1EEA161
1FDA87F
0017544
1F95A4A
019AD57
1EE0B81
1F10ABA
1FD5EB2
1F0E76B
1ECC6B5
1E58440
0162F80
00DB7CF
1EE40FC
1F6EFDF
1EB13A8
000AF58
003DBC8
1EA4B41
1FC04A3
1F84B5E
1ED3A30
0157E23
000F2A5
008B359
1F1CA7A
1F85144
008CF62
1F5DBBF
01041AD
009FCC8
003F3DA
1E8A2BC
1FDAAD3
1E9044A
1F52A17
022AFF4
1F5606C
1FEAD16
00A13D2
1F405AA
1F29F4C
1E2EDE3
017594D
1EF6565
1F8B64D
1F71F5F
1E2CEFC
1FBB5C1
1ED340D
1F1419B
1F99D30
00E898A
1DE27A7
00DFA6E
1FBAF85
002C5AD
015CCC6
011AFBC
1F18171
1EDCA85
00EC819
00FE6F3
1EFCF02
0058DA2
1EC2A35
000CBCB
010AA97
00D349B
011A1AA
1F02C0B
0122F1E
014324D
1EDD0CE
1E1BBB8
019DCE4
1F4DA3A
1FCE179
1D89266
1E3CE25
1FE447D
0149EDA
0025A21
00C008C
0001547
1FA26C8
1EAE28B
00AEF7E
003A52A
1F1C854
00AB33E
1FACADE
1EA8F8D
1FD91FF
1FA6A21
013A68F
0008771
00FC6E1
005705B
1F16C6D
00B3230
0027EBA
1FAAA9D
017D4C0
01386B0
1F36047
1E1D7AB
03BDC2E
001B596
00C4FC9
1C6D0BB
1D85AD9
014DD2F
0150A13
1FA9AC6
00CF3C3
011AC59
1FC72F4
1ED0333
006D426
1EBFB6B
1F83905
1F1E056
00E34ED
00F2B0F
005BC43
1EDABEA
1E92DC1
1F32575
000773C
000AC5D
1EB3CF4
01982A5
00C99A1
1F62B4B
010D801
1F1302B
1FC4F70
1EC6CB3
025D414
1EACE97
00DFDD9
1CA6F1C
1CFB4E7
1F15567
1F64C0C
007C17D
0105D7E
1F6247D
1E36AA8
1F19486
0307EF5
0145B31
1E1AA5B
0067C6D
1EEF586
0146AC6
1F2A797
00DF8D9
01122EA
1EF1BE3
1FBCC3D
00E82C6
1EB3ADB
00F1C13
1FF68D1
001682C
01B19A8
1FBD8BD
00474DE
1DEFAA3
02247AC
1F448F5
0062361
1BB5557
1C6D7C4
1FAFF34
00E6AED
00816CF
1FBF3DA
00A85F0
1ED829F
00CEB18
00D718E
1F79E8E
1D38D4B
00F7D8C
1EBC167
002D70F
00F6896
013E61C
1F0F2CF
1F50219
004C67F
1F5607D
1FDDE5E
1FB18FD
1F23D74
013C16C
0121C4B
1F94335
1F454DC
1E7A002
030C7BE
00EF17F
027C8FC
1B5E848
1DD1F3E
1FA7ECF
1FC8117
1FF2A1C
1F6B520
006E02D
1EB71ED
002E3EA
0269E3D
1FBAAA1
1BFA059
0053AAF
1FFEB63
1F754F5
00F807E
00085CE
1F79E24
01274A5
0031DA6
1FC63CD
0097E88
033A78C
1EE4221
1ED233B
1F8E423
00E6590
1FB7D0D
1BD1AF6
0160D00
1EFFE08
1FE8332
1963003
1BDF226
0002C22
1F627B5
00CE1CB
1F40480
0090D21
1D48455
0143839
0164BEF
1EFE385
1CA78D1
0052641
1EFD7A3
006C4C6
1FDD9F2
1F6A766
1FDBC82
001BE55
1FFC10F
1F37AA8
1F38707
0334E37
1F65361
0129E79
1CCF463
1F89CDB
00302E8
1D905FD
0349D4C
00A82E4
1F91EAA
19D2EE5
1CF21ED
0099469
1F206CC
1FEE104
1FF9187
1FA97AA
1D2AD2E
00F404A
016ACE7
0024157
1CDDD2B
1EEE6D4
1EF67A9
003B24B
010EE9A
1FC6C6F
1E95431
1F237C8
1EE8602
00D7E45
1F8F62C
00F6CF6
1FA86F5
00399FC
1FA5A51
1F46DAF
0138229
1C96273
021086B
1F71188
1F86D3F
1AE9F77
1DF7F9B
0078AFC
1F3E716
1EC5333
00E3619
00F07C7
1F48B31
1F786F1
014D3C3
1F2FC15
1C1B0F4
01299A7
1F1A502
00F97CA
006B073
013A982
1FFADBF
1EFA35B
1F1257A
1F2034E
001262F
02A8D42
0053CF0
1EA69AD
1E9B4AC
1F0F51D
1F9AF9C
1D55ED9
0344FCA
1EA288F
017EE1B
1C40B13
1C1FF39
1EFC475
1F2B384
00433B8
015B048
00B0DBA
003D6A6
0155C5B
022FB2A
1EAF788
1B27C6A
1F2CA3B
0052770
1F7EDBF
006EC42
0039E7D
1E8B894
0115F4B
1FB07AB
0122F99
009DDFC
0170E6C
1FA5749
1F57B63
00494A2
1F0C471
1EA581C
1D9CA18
0292D9B
0006FAC
023949D
1DCDFD9
1BBF3AC
0006ACA
1F1E24A
1FF8977
1F172D1
1FE52B0
00E31CE
1F1866D
039092D
1EC03AD
1E44127
1F68A0A
1F492B9
1EAB4E4
1E868DC
1F0974C
1EE8F69
005D097
1FFC34F
000EDA0
1FB4E26
1F35B39
1EA5AB9
1E9CC80
01B912D
1FDED24
1F305CC
1F7C4DD
02C8122
00E79D4
00D4190
1D27B5D
1D99A2B
014AC49
0127C10
1E8F3BD
0084FBB
1F85464
1EBB8D2
00BF526
003F1F4
00B669F
1EFC1A2
1ECF2EA
1F40FC6
1EC9E0E
0143D7F
0024813
1F42BED
1F057DA
1F0E470
01061A1
1EAB0AD
0078CFB
00A9BFC
1F85241
0199363
1ED1FCD
0073CA0
1F9389A
030FAE0
1EABF89
024D71B
1E74EEC
1E8A2C7
1F7A663
1F12767
00B3574
1FC8F5A
1ED8C1E
1E55323
00E9E91
01BF85E
1F01896
1E59C73
0130F6F
1EF2B81
0055CD2
1EFD840
1F883DC
01388F3
0112DEE
1EDEEAF
1F95B04
014F28D
0194354
00F1339
1EB9228
00AA2CA
1F4A102
1F2F992
1CEB834
02B1A60
1F25CB0
015CBAE
1F72344
1FC9F28
0104780
1FF9929
00BC2FB
1F8C719
006024E
1E63A37
1F63FB0
0115C74
1F05903
1EC9479
005F56F
1F9FEB9
1F8F9C8
1FD79E7
00CCF6A
002BD9C
1F2F9A9
1FA3839
1EE6776
015557D
008E92D
1EA13E4
012EBB0
1E5E5A6
1EAEA93
1EA5CDF
1DA217D
023CB42
1EC4E49
1FCE97C
1F5F6AF
1F3604F
00DB09B
0147A4D
00D8049
1EDE0E9
1FC0F0F
1DC9963
1FCF018
0231D33
1E99E01
1F0AEDC
1F3BBB8
1FDFD70
1FE94FB
013C313
0139E5D
1EF51B3
1FA5134
0064837
1F8168E
1EFE580
0090016
00CA97B
1E9C67A
1FC4749
00F95A1
1F33061
1D9F642
0028AF4
1E8EC1F
1FC44C7
1F08BF0
1F384F8
0145A37
1EC5E43
006CB14
015F2C1
009D205
1E813CC
0043FD4
01165F7
1F89DDE
00B8C2E
1F22B47
1EC8A14
1FB44AA
0102100
1FC7B54
1EB5980
1EAA880
1F566C5
1E9EC79
1EAB7DD
0119FF4
01296B6
00129F1
1F8803F
1ED77C9
1F5DE3D
1F051AE
01BB016
1F1DD4E
1FF1864
00B79EE
1F8394E
007EFB9
1EA8C29
004A999
1FB698A
000C0DF
00C542D
1F18789
1FCDD73
1F4322A
1FBEA9D
1F4873D
007352B
1F3431C
1F68ED3
00EC173
1F40B3F
1FF28D6
00D42AA
00CB025
1FB08DE
1F428AD
1FF0033
00AC7A4
1F663A8
1F220A8
00913BB
1E9ACB2
1FB4177
007BB02
1F77907
017041A
1F16FFB
00835CB
1F2C760
007D4AA
00CDB0F
013DF54
00819AE
1EDC881
0074FF0
003F684
1EE2459
012BCED
007332A
1F1E445
1EC3F1B
1F9C4EA
01134CB
1FCBC90
0010613
1F9A879
015F162
021A2D6
1FBCD04
1F1C2B2
1EA2EDF
0096249
1F35F2A
00C7BD3
1EEA583
00FCCEF
1ECCD8F
014121A
1FCC851
01030E1
006A1F0
011A499
003ECC1
00C39E9
00AD4B1
1ED699F
1F24FDB
00CB5B4
0279C41
009F94D
1FC2905
1FCC7D5
00D3092
005A2CB
0149C66
1F630EB
1FC25BC
00BAB8C
0023A22
00F7E24
0119820
1F41515
1F1AD9A
0090285
010854D
021034E
1DD47FC
1FFA6A3
008C6D9
0349947
021606D
0032D31
0127136
008141D
1EAFD1F
0072376
1FA7F0F
01556B6
1FC0B92
00D33F3
0119D64
1FC6E48
1F121AE
1FA5E91
012825B
009C5C2
1FF1ABC
1ECA206
1F0D336
00AC2AE
1FE7DA9
0026CA7
1EEA5C8
1EB4056
1F33167
1F7B180
0130D8E
018BCFF
1D6F62D
1F07741
1ED9A95
01BEC29
0008B2B
1EFB84A
00CD4D4
002B7D9
1FCFCE8
1E91405
001BF17
1F09A2D
1EDF414
0141672
003A228
00750D2
1FF1E8F
004AE05
005DEB2
1F194D3
00BE72B
1ED872C
1FCCCD8
1ED0905
00684B2
0019183
1FB19E6
1FF76C4
0181C3D
0090029
00869A8
0104FF0
00378A3
1EDC24A
1F93472
1FEF7C9
01C17FA
1FE8C2E
1F9C268
1FC67DA
1F68F12
00AC07E
0194F42
1EC7043
1F80310
1FDCB2A
00356BD
1EDCBA9
1FFF50F
1FCE148
00F3168
1F3EF80
006549D
00DAB39
1FE4F9F
00FC969
1F2943F
1F9E224
1E8C951
00F9551
0092D27
1F90C8E
1F92703
012B39C
1F772DB
008FD6D
00949F2
00580AA
0164C74
007D40B
001A25A
1F213DF
1F2A697
012014E
00C832A
1F2F168
1E7E901
1FAA76F
0039E5B
00328A0
011BD13
1F9B9C5
00F80FF
0030391
014D820
1EE3182
1FEBF87
00CD0C8
1F636B4
0198CF5
1E8B869
1F154C1
1F573E1
00972D0
0103421
01EC5E4
1DE072C
00204BF
001CB99
014FF27
00C8426
1F2629F
1FB9E58
1FC157B
001DB44
012A458
1F25AF1
1F6DE4F
01AD025
0114E10
00490CB
007EAFB
006F5C1
0053E4A
1EC5E43
1FB5F33
003D6AA
0143D84
1EFAA3E
0072222
010AFD4
1E8C835
005B53C
011CF4E
011D25D
01453AA
0031776
007E6B6
009B09A
1F606A5
01673B5
1EF9D79
00F7068
1FADA33
009B693
1F2FF2B
1EF0C14
00ED00D
1E0DB54
1EF4652
006AC18
1F7AB00
015BBE5
1FEDC90
0016CD6
0045866
01192ED
00F4B7F
006BC15
1FA1DE9
006811E
004C675
1F9CDB3
005AAC1
1F59A41
00DAB80
1EA5E93
1EF7A84
1F8ED8A
1E32564
1F96101
00740A6
00387CF
0048766
00D0B92
00AC7C6
0017291
009EE8F
1FE702A
1FCEF68
00E7C9C
1EA3BB3
0031343
1FC5CFA
02D40D0
00CEB70
00C0A4A
012304E
1EAE971
1EB9DC8
1F27663
1FBD3C9
007DFBD
0113073
1FB7810
00E3F3D
1F9924B
1EF9539
0238D20
1EF6A73
1FF284C
1FEFB92
002C7D6
00ACF25
1FAD780
02482B1
013652A
0020CA5
00B388A
1F3772A
0002E9C
1F526D7
01F84CD
012ADF5
005E835
1FFBC1C
1FBD0CC
1EA26C8
0121F1E
013ADEB
1FB3702
1F2600A
0030B5D
1F5D391
1E87C5B
1EC6A77
00930B1
0018CE6
1EE6E17
1F66476
1FC3562
1FFD079
005129A
0078589
1E24C2C
1F04B65
1F38D3B
00E4F73
1FF0C77
0124638
1FB041D
004E702
00F1B51
009699D
1FEA1B5
1F38564
1EA7775
00F7C59
1F6C9C5
1F3F20A
009116A
01231BF
1F005DF
00D3EB9
1FEA754
1F202E2
1F28A8B
1E9F8A3
00681B2
01FB16A
1F466DF
00F4D8E
1F5EFF4
1F16FAE
1EEA274
0068FEA
1EC2FE6
1F065DC
1EB2E8F
0044D40
1F98FF2
1F93EE1
1F0326A
1EC9D71
009BCE1
1FAECC1
1D65914
0028C51
1D6EC68
1F41829
1ED4E19
1F34412
00B2FC4
1EB96AE
008CE72
005A626
1F0C731
0148F57
0013DF3
1ED6F42
005B2F5
0250468
1FD317E
0126760
1DA73D0
1FC790A
1FD0ABC
1DEDF74
0098D8A
0010771
1D3FA04
001F795
1DDACCA
1EAF96E
00F6114
00F2A55
004660D
1F4204D
002C91F
1EFC774
1FAE771
1EEC8F5
0113285
0109555
1F69C23
006DF0F
1F28B57
1FEA031
1EF341A
00980D6
011B046
1F37E05
00B0267
0204A50
00DBFA7
00CA10B
1E96888
1F62F40
01469B4
1D2F68F
0210B7C
0061C02
00D614C
1F71595
1F0A764
010CB84
00A2F99
1ED696F
1F60147
1FE4137
1DDD4D8
1F8E796
1FAA74A
0018EB9
0099D3A
0027587
0032CE3
1F62B2F
001A2B7
1EF0BB8
0072458
1F69336
1F065E2
1F7126B
1FE454F
013A360
01423FB
1F6B5A9
1EF7121
1F55211
1F2996F
1E7B2B3
01D32D1
1F83E00
005E7D3
1F7232D
1CA1098
1FCE9DD
1EC8FF2
011863A
1F6465B
1EDC5C1
1DE9D1C
0106223
014CBCB
1ED5ECA
00750A0
00622F0
1F94635
1E871ED
010C5A4
0110ED4
1F6AFD2
00B6B43
1F800CE
1EC2687
1F3CB8B
00E29D9
1EF7C42
1F76A3C
00109E5
1F57FE7
1F27947
1E68E28
02E4061
1F70B86
01D8E09
1EF913B
1E7AC0D
1F2F955
00F36C8
00C4E6C
003E219
008D81A
005FC96
01030AA
0258B0E
008D201
01DCFEF
1FE9505
0013FE8
1F06372
0105246
0089A47
00B117F
1EADAA8
00E572A
1EC5C29
1F3F08A
1F20C77
1ECA9FC
1F4716A
0033212
1F713BE
004A74D
1E3EA8C
03C8226
1EFAF27
01136F1
1C3FABD
1DDA26D
1EC9A5E
1EBB17C
0126176
1EE588E
00FAF34
01AA929
1F9C3C5
00DE764
00D6596
1F7AA6A
0080FAE
01486BD
0094622
1FDDEAE
1FA823C
1F57A9D
0114C5F
1F3E4E8
1FBFD07
1F3C6F8
1E535C8
011B1EA
1EFFC5E
01D565A
0139276
1F24CEB
1FD6382
03ED3B9
1ED1514
0134A83
1C60686
1D98147
00BC7CB
0133863
1F97CBC
1EC7310
0007BFF
025E747
00FCAE6
01BBBCB
008604D
1F55A71
00C71D9
1F49D96
007D2C9
1F617FD
1EA3F0A
1F3C47A
1EC9552
009C56A
1F33EA2
00A6F5E
1E74C7B
1F619D6
012A9C1
02D4905
1EDE4E2
006D2D3
006E588
01DB3D7
00E447E
0359E6D
1C2D501
1BA877E
1F39069
1F8D094
1FC310D
003128D
00B4EFD
0398EA0
012D61D
03142B4
1F8DC78
1F181F3
1F016EA
01314C4
002367B
1EE9A74
1ED9283
1EA027E
1EC1D83
00B1E54
1FAFCA4
0032684
1CF40BE
1FD107A
0066DDD
0488267
00DAC0B
1F94FED
026857F
0548AE3
1EB2C79
04E14F9
1A3C39C
1A1897B
1FFBE5C
0033A3A
1FF0FC8
002113A
0012B00
041D165
1F01567
03112B2
014659B
1C25240
1F2539A
00BE66C
012229A
1F308BB
1FBE32C
00BBC14
1EBB6D3
013DDF6
1F0993F
005DCD6
1DBC42C
00B0B02
007E0B3
03EDA85
00E7B31
0108D04
014D121
0600908
01451DE
040704B
1A54237
1B579DC
1FF506A
1F52ED1
1F4E92B
004909E
1F84E9B
0320B6B
1EE3A3D
033BBDE
0083CBA
1D3DD6A
1EBBF00
00B91C9
00F3C8B
0044C22
005BF68
013CD52
000C731
1EFB9D9
1F9F0CD
1F7F7F4
1D0254C
007D131
1FB60EC
0250775
00A17EC
1EEE9F8
02492A7
04A5298
0046699
03EEC42
1A27605
1A58092
1F23262
1F51423
013BA71
001D030
0021890
04CD51A
0103CC0
0358976
1FA821F
1D86592
1F6303E
00FBD09
00B1B4F
013A9CA
1F4D197
1ECE34A
1FE2460
1FF899B
007BFA0
00F537A
1EBF654
1FAA592
014362F
0276535
009B535
1F55B9C
028CD06
04C6984
1F864D4
03FDEF4
1ADA254
1B23CDA
014B000
1F11F8E
1F5ECFF
1FC42E5
0023295
03A5D9D
014C1E4
03DC1CE
006ABE0
1C66228
1FC4790
005B535
1E90D19
009465F
1F27E01
1F6CE1A
1FA7F8E
1EFFCF8
0124B3A
1FF0BE6
1CDF8D5
0125E52
1F1DFF7
02A16B1
1F6A4E1
0048BEB
034FC19
06E1AE5
1EFF897
0439D79
1C00795
1AF1AF1
0012628
1F349A1
1F4C6B8
1FCA36D
0004A9E
0370005
002F6AA
03491B1
00CC7A6
1B264DF
1EFB165
006910F
1F80422
1FFF613
00A80D5
00DE0E2
0128768
1FD6154
01384F7
00A4301
1C4A167
0115D6A
0050D37
049B43F
01089C5
1E986F2
02070DB
0546BE8
1EAF009
041B7D6
1D2CB3D
1B91C7C
003E917
00D9AD8
00D8C5B
1EED0CA
008C2C2
055971E
000B6D3
0336C4D
00ABD0E
1C2B6AA
1F89689
0102315
1EB0180
00C19C5
011B2CE
0056D15
1F9D258
00ACB12
0010CAB
009FE6C
1CCD24D
1EB4501
011B776
02C62C4
1F7B364
0122462
01FF4A4
06005AB
00D6789
059E66A
1BAE194
1C3C7BD
1F0CDF7
011D636
1F21FBD
1ED80AD
001B1D1
02538AC
00A3FF3
021A71B
00D61B9
1C23B31
1FC7D17
1F753FD
0054972
1EEE71C
00FE7CA
0148EA3
1EFD668
008C88C
0047BF8
0111DFA
1D370C2
1E8A659
00C6DF9
02B5EB9
1F1D9E6
1F84059
01CF469
0596F17
1F4BCE9
033163F
1D955D3
1BD66AC
1F6E369
1FC31A5
1F4F360
01521F1
1FC62E8
028B5D1
1F3435D
01F6154
1EA9863
00E1C81
1F989F6
1FAF5DA
1FFFC16
1F646F3
000334E
1F25EE0
1EE7CFB
1F9F201
1EE00EC
00A545C
1EB6CB5
1F6991D
00CF99A
024445C
004A7A0
0078DF7
1EDA17B
04F17BB
1F939EA
028D8C5
1D97988
1E36C79
1EA2B71
00B1037
1F4E6FD
1F2BE9D
1F12F04
00AE602
1EE8DB3
0230F5D
1F3E54C
1F6E692
1EAC45B
0144D81
1EE5E41
1EBD746
1EDB67A
1F0DFA7
1FCD77D
1F54EA2
1F7309F
1EC8F03
1FB6450
1F15FA8
00715F0
0230EAF
1F49F0B
1FA6F9F
0032488
029AF04
1F4720D
00DA80F
1F0BED9
1C66A0D
1EB8F71
00601B2
1FF756F
1FC340E
1F87056
1F55E7F
00384D0
00AD9DF
0020BB1
00D9D87
1EC9878
002FD26
1ED4991
1F1F7D7
1EC5916
001485D
1F471D4
0015CB2
1F9C718
1F06378
1FB5FDD
1EEEA77
1EA008F
004BF29
0056F01
1ECB4B8
1FA0C82
0428C73
006425E
0016C26
1E1900D
1D82D6F
0027D67
1F82469
004617C
0054733
00DA5A7
1DD8981
1FACF87
0000090
014521A
1E7967E
1FF914D
1F4EEB2
0013856
1F63B28
00334EA
1F21CE5
0083303
0111C45
1F1B18E
1F0CA1C
00C6952
0017AF4
003E3B7
1FB3875
001EA71
00AD909
1E0814F
00FC136
0132558
01DEF90
1F24A99
1FAC63E
0066705
00F0E4D
1FDBF7A
000DBD0
0115887
1FFE7F1
1FCC397
1FD1293
00B6EBE
1F12F50
0000F5B
00943E2
0020478
1F1F0E4
00CE5BC
0001E54
1ECAFA1
009438E
00F3314
1F5517F
0155C75
1FE4268
1EB8ED3
002CE93
0115CED
1EB9985
1F13643
0117C71
014166B
01E4D08
00C4146
00686B1
006F4F9
00FFAD7
00A558E
1FA5E2A
00FE8A3
1F520BC
012078E
01482A5
1FE4F2B
00777AF
1F5AAC1
1EE288A
00CE937
1F4A091
1F18CD4
1FD48E3
1EB8C18
1F9BD2B
1F5E75D
1FA0DB6
01CDF20
1F676C1
00C4746
1EABB26
1FCB4CC
009CBA0
1DC672D
00901DC
1F39950
1F392C3
0084F2F
001EF3A
00C9E9C
1F0119B
001B688
1F4678A
1E96D08
0086BE7
1FB46CF
004BEBA
00329F5
1E9DFF5
012A1E9
0077799
002C350
1EAF36F
010B1C8
1FF3972
00EC67D
0005DCA
00D12D1
0158F98
000E2ED
0066A7A
1F88971
008CC13
1F730AB
0075F7A
1FBFDE8
0097D5E
0112515
1E9FEFB
011795A
01CFCF5
013A5C1
1F7420D
1ED34F9
1F5ABEB
0061399
1F0AAB5
0113503
0047BB4
1F9EDAF
1FBC09F
006E4E9
010A4E6
1FDBE91
0082FAF
00BEBE0
1FCF749
1F364C0
00760AA
1FC2107
0006944
02428AC
01105C5
1ED9D56
00A3F5E
00BA960
1ED4823
00614C3
1F9BB8C
0101856
0084B68
00D7A54
1FB8388
1F9410D
00D3B48
0000ACD
1FC81FB
1F19D76
00816B0
0079239
1EC0D2D
013470C
028B436
1F0D8E6
00B6DB2
1FFC921
1F39A09
1F80859
1FD41BB
0142326
00D11D6
0029BD5
0127057
00540DF
1F7B142
01432A3
00FEBDF
00B0FD7
0059F43
020815A
1F9CC27
1F645FE
0056AD6
01DFB42
1FAAA70
1EB9958
00691DA
1F4251D
00AD815
1F0E3F6
016E028
1F6B475
00DFFB0
1EA1E5E
00ED8C0
1F54FAA
1F20958
1F1BA66
1FC9A8B
012E0CD
1F578AC
1FDC63B
0129EBB
1F6C7A8
00CDB95
00A8066
0133744
0097140
009153F
1F9734A
002222C
1FB8651
1F7F238
1F29D6F
01715FA
1E2DB84
0084303
1ED60AF
1FACC8B
0125E3C
003CF72
1EB698F
1F5E9E5
01172C9
1EEF599
0074031
01ACE70
0079FDB
009EBCE
1F813B2
1FDD9B9
1EF0C3D
1FC86F1
00CD12D
1FE3251
1FD48A0
00E28A9
1F4BC9B
1F9ACAF
0141C18
1F2617E
1F9F6A5
003744C
008892D
010D1CF
010C1C3
1F350C7
1F80D9C
0033BA7
00532BA
1FBCC01
1EDD5BD
1F500D2
00576FD
005436D
1FA8395
00C44CC
1FF24DB
006855C
013CA2D
009C072
00D5D6A
1FA120E
0064EDB
00638C3
0123723
0021328
1F7A7A8
0086522
01830B3
010E8F4
00F8F80
1FAAE83
001724D
00379FD
001161D
009EC72
001E86B
002D70B
00D1214
00358ED
1EE3AAE
1FCC385
0006260
1ED0E4E
002A5D7
1FE55D3
1FC3FA4
011AAA4
1F7AB1F
1F4BE81
1ED23FB
1FBD5DC
0087F14
0091792
1F633EE
0007C3D
012A907
00925B2
006AD0A
00BDA75
1FF918F
1FC5A43
1F8D58A
00D7FA1
01136BC
0006515
1E3F7E0
1F97CB8
1FECA2B
00BF7D5
024C098
00EEFCF
1FB5145
1F916DB
00A5023
1FAFD49
00E19E9
1E41F53
1FF9659
00A136C
1FE742F
0154795
1F828FC
0110C96
1F14B64
1F3695C
1F071FF
013A56F
00D7384
1FDE2F9
1EE9FE3
1F19737
001DF3D
1EF133E
1FFDC8C
0117ACC
1EE3048
0037298
1EA30F9
1FFAAEE
004EA7C
007F122
1F498BF
1FDC767
1FD80D9
00FBD7A
1EA04E9
1EE0737
1EAE892
000A35F
1F6009D
02C215B
1E90E52
0096136
00B0611
1F0A9B7
1EEFA69
009D703
1FECCA2
0026CC6
00FFD38
0123EBC
007E562
0004BD4
1EAF476
00689BE
1F113BE
000764D
0100AFB
0109736
1E5A817
1F84DEE
011C332
02079D9
00CA106
00FEEE6
1EA6EE4
01348EB
1FAB620
1FF2EF7
1F69B89
1F3DDE4
1FA8C97
1E382C1
010A7E1
0066C6F
1F6463D
0051459
1FD14D2
1FA3C58
1EFF25C
007EFAE
1FB0801
1F7335A
1F8EBE4
0115DFA
0219037
006EE24
1F4C120
1ECB065
1F677CB
1F1C692
01789A4
1F93E24
1F25814
1ED1BD9
009EBA4
1F2DA60
009A06C
1F7587F
1ECF070
1F9640B
1FF85D3
1E24587
0037FFB
1F40CFB
00D84BE
1F6B164
1F5F6C5
1FBA0CC
001AB9F
00071BD
1F5D9D1
0001DCB
1E940AA
1FAD2FE
0028F28
1F7E64F
01C35BB
1F3F563
0126678
1FCC815
1F86179
00847E8
1F2E82C
1EEA981
00B9956
1FD427D
00B8A88
1E474D0
1EC4D16
013895B
002A5BB
1EA7F49
0059CD0
1FA08D0
1FE28E1
005BBA5
002762B
1F8E8BE
1ED53CD
00630C8
1E9B100
00EFDCA
007AB5F
1F4A29E
0146065
01012EA
00C4334
1FFD570
01DC8C4
001EB00
00CB3B6
0012114
1ECE4FE
1EAD7F0
1EB794B
00DA311
00304EA
00E8EB1
1F7A878
1DD21DB
0024C1C
1F1DD8C
00F82B0
01608AD
1F8D46C
1EF2964
1F438B2
1FA6A62
01085B3
1F816C6
1E8FB04
001B76F
1EA61C5
1F0DF33
00F0E0D
0100E3B
01351B7
1E8370B
011ECCF
00189ED
0023AA3
00FCE9F
1F3FFA1
1F6A99C
1EE0BEE
013F39E
1E3C392
011D730
1F6A497
01742F6
1D792CD
1E199FA
007A384
1F547C5
00CEC81
000D2BF
008DD06
1F0A08C
1FF1A16
1F5A6DC
00E4C25
1ED7362
1EDF443
00034DC
00737FB
1FEA592
1F34E60
00DA049
1F0049A
0037351
1EC67F0
1ED2696
01C46D5
00478CD
001884E
0093E73
00836C5
1F9862A
1DDF3B5
019BD06
1E946A4
1FFA307
1DA23D8
1EFAE2E
1FD1D29
1F1A0A3
1FB4489
1EDE3AE
0049EE7
1E751D0
1EC5D4E
01D2ECB
0061A82
1F0B486
1FDE9FF
1FA4AB2
0052FCA
1F4D9D3
1FBD9DE
1E95822
1FC209D
1EF12FF
00CF3E4
1F25E82
01BE138
1FA4C1F
1FA5799
00B2321
1FDBF03
1EA5EC5
1F346AB
01EC16D
1ED614A
1FBC113
1F08FE8
1E77A7B
1F1B2A3
1F78D28
00F87E2
1F7DE86
0051C72
00216A9
0070535
1F182E0
0036472
1E145DD
1F3575D
1FF792C
1EADA94
1EC2761
00A267F
1F5B0E1
1ECDAA0
1F798CC
009CC75
011ECD4
1F9CC51
1FCDC7F
1F65C28
00B6F88
1F64A8A
1EFFCAA
1E03009
1F90625
00B0FC7
1FCE987
1F92108
1F9DCFD
1F3E556
00208FE
00F18EB
0078ABB
1F55751
016578A
012FD1B
004ACEC
1F7A109
1E953E1
00397CA
1EA0B5E
00A21B7
00B6EBF
1FC1C22
0008CE6
00653B6
1F4B118
008BA69
1EDADEC
007152B
1FE39ED
00529D1
00B2296
0080031
001EBAD
00E9D10
1FF9004
010E570
00C198B
1EB9A60
002FB52
1FD05D7
009193F
1FBACFC
1ED13B0
0076501
02D569B
1EC7AF1
0187741
1F33324
1FE2979
1F90A9E
005837D
1F6C187
00A62E1
1FCCD9C
1F64B2E
1F464DA
1E885BA
1F84185
0046EFD
1FC0BF9
1F27E1E
1ECAEE3
0167DAB
1FF7295
1FE02F5
02B9B01
1F520E5
1E9CFD6
018E8F9
1EB1B7A
016E215
014A847
005F27D
1EB34F5
1EAFBED
00EF50B
02568C6
011674C
017E23F
1F8967C
1DF5CFA
1E8F905
1F48355
1FE6D34
1F751CC
1F4589C
007C8A5
0001443
1FF5718
1F6B2DB
1FFDEC6
1FDFD98
1F63119
0108707
008CF25
00FF991
1EFD6A9
013BA2F
1DAC556
00F10B7
01C655B
1FAD8D4
004938B
1F54F43
1FF4A34
1ED50E6
1F5629B
1EBDB4C
02187EC
1EAB256
008E5A0
0103D92
1EECFF4
1EFBD0B
00D6B4B
00E9C56
0025469
00F7542
007FAE3
1EF550D
1F1B9FE
1F4D8F1
003E5CF
1FF3EFD
00A7F97
0087CB5
020600F
013CA76
1ED8FCD
01A2441
1BF13F8
00F0ACD
01789AA
1DC8D49
017528D
1FBD9E8
011D1FC
00C955B
00A779A
00F75E2
014A1D6
1FF2D34
01373B5
0106686
1E46BD2
012B6F6
006F638
1F69D01
0029960
1F5C361
0044DB4
1E95DD2
010BFCE
1F08EF5
00E5FD9
1D64710
00047D0
012C21E
01D6E83
000BAC4
1FC1D57
0189A04
1DDBC1E
1F2BE5F
00945FF
1BF28C1
1FB111F
006C1A9
013ABEA
008EA25
1ED15E1
007057D
0455526
1F30ED4
021EF83
1EE9215
1DA22C8
0043F67
1EE42CC
0004200
1FD2D2A
1F57E69
0022FE7
1F0FE13
0051FF9
0078EEC
1EADC18
1CCADED
1FB4D47
00A0033
0370D06
012168E
1FD653A
0255ED5
1EA35EA
00E1913
0375581
1D21942
005E586
00F7915
1F51F26
1EBFCB9
1F7F49E
00FDFE3
016C3BF
005CD57
03EDD52
1F8DC63
1DFF365
00B7961
00DE40C
1FBB3A5
1FE3547
011739F
00A3E7B
00FC04D
0135C56
1FEAA53
0063C82
1CC4B41
000C971
014096F
0436C93
001B5E7
1F22A28
020338B
1F8C666
1FA28E5
03651C8
1E53D47
00467BF
1EBEC48
00997B8
1F4551D
1FA1F10
00767D9
0333D0D
00DC853
02EA6C0
1E9CED6
1F1FF6C
0076F3F
0108739
0145AFE
01303CA
01509FF
01515D2
00BDCAE
000439E
00B1921
1ED0FED
1D276F8
1E8D8C0
0078A94
0354352
1F7BF78
0098A9F
029AECC
1E8BC27
1EE0F62
016BCB6
1F89D86
1FB050C
1F7CE0D
1FA10B9
1ED8D88
013AE47
1EF2769
02CEF0B
1F88866
00A55A5
0149225
1F505EB
1EF312A
1F01DAE
00371E0
1EF1E98
0016F08
00D1DA0
013EEC4
0024401
00E129C
0110B04
1DDC6B2
1E859B6
00AC4AF
014AB1F
1FA8DDC
1F3C91E
028DFAB
1E89671
007DBF7
017B95E
1E56E87
1FB7C0D
01106C9
1FC4503
00CCCA6
001917E
000FA89
00BE5BB
1ED8379
00D3629
01059DC
1E3BCA0
00EFB8A
1FB811B
1ED4543
0044BA5
1EA6BBC
0115C3F
1FD2F62
000CD13
1ED1901
1F09308
005489F
004E663
1EB6413
0008EBC
1E8E1E6
1F9DA46
01A9C61
1D49759
0134BF3
006DE32
1E25EA9
1FFC517
00B8137
1F23351
0058B09
1F4AABB
009C8A7
011EDC9
1EE5E38
014CA37
1F242D1
1F36013
1F484D8
00FF5C4
1F52E94
1FD01CD
1F6D191
014B0BE
1F47543
00D5AE8
00371F5
1EB0EDF
1F13FEB
1F21F09
00BF298
004D073
011613D
1F760E3
00ED565
1E684EB
009408E
0067983
1D1865C
00EAEA5
1F58737
004C3B7
1F007BD
1F0052A
00BF5F1
0036C21
00470D3
006F9B1
1F5495E
1F70CBF
0000B63
1FD1E77
00C3FBA
1FFFEFB
1F61814
1EC3F90
1F143C9
010965F
00508B0
0079141
1FB298D
1EE4090
1FBDE34
01D66BF
000F1E2
1EFD124
012E230
1F955DA
1FD1536
0136DB8
1F63FE7
0077138
0121A09
009A89F
00D9365
0137932
1FCF65B
011A322
1EF08CD
01648E0
00D34C5
1F00290
00A6FC5
00E8480
1EABB7B
1E8A2D7
1F57EBD
1FAFAF0
1EDA490
1E976EA
011F028
00B5D30
014CD44
1F64257
1F92520
000FB32
1EF620D
009743B
0022182
01E73F5
1EDE41B
016E0A7
004CBEA
1F9B34E
1F7559A
1E9B27B
1E917B6
01420FF
00B93B8
0068655
1EECA10
017AFD9
1F54A8B
1E7374F
00D65D2
002712B
1F649F3
1FD998A
0034C2B
1EA919A
1EB3562
00D94ED
1F95A07
00B7A74
01B774B
1F46BF8
00B0D9C
0103E7D
008BAE2
1FA70AE
00715C8
01D7BBF
001C617
01A6C53
1FF9129
1E7E500
1F08DEB
1F63FB2
1EE0704
1EC186C
00DC11B
1E437E5
1F0D1F5
00E2CC5
009F7C9
0017C74
00F8BA3
1F27183
1F9E57A
009B0B2
00DF8A5
1F896AE
00560CD
1FD903B
1FE8FD2
1FCD217
009AF1A
1EA7931
1FA27EE
1FCE03B
0028C77
00AA20D
1E7ED8B
01E8F2D
0060FF2
1FC23B8
1DE06C0
1E234E3
009C5D2
0110FF5
1FD04C5
1EBEAA7
1F6172C
1E0C244
00C6E77
1F6557C
1EAB560
1EB5530
00DCBFB
00F4163
1F40701
1F279BF
00086B4
1F0A449
1FC497B
001380D
1F08BE0
1F1CE60
0037C24
1EF3C79
1EA3719
1F9D2BB
00DFDBF
1ED155F
1DEF5A5
00BCC3E
1E8B6C9
0146F1F
1EA2711
1E8A8B4
008657F
00E3286
1F59BFF
1F5CD9C
011B83C
1FCD553
1EA9A2F
0015549
001073B
0002798
008409D
1EB94A9
1FD0BC4
1F3DC5D
1FC22FE
1ED2B87
1E960AC
0084305
0003905
1EBBD76
00D1473
1FCE79E
1FFF2C6
1ECE2A7
004CA4A
1FDA30A
1E14877
0159661
1E94143
000B65E
1FB3647
01A5593
1EE1EB2
1F119E5
0105837
000008F
1EE3478
1F4F89C
1F4F164
008503C
00AA3A1
1E11059
1E9A12E
013535A
1EA48D2
1FF46B7
006F01D
1F9EEC3
1F34DD7
00154D7
1EE6D37
0069741
0138927
1EF196C
1EC5A5D
1EB36C3
00F798F
1EA2EAE
1F31F52
1F81816
011F4E7
1EEB26A
1F37286
001E4A2
1EB0B34
1EF7C7A
1E7CC44
005BA12
1FA2338
0103714
1F55DF7
1EE858D
0155EAE
1FD0BEB
1F895CA
1EEBB4E
00D6D6B
1FA6764
1F17D6F
014EA58
0144DB3
1F583A7
1EF949E
001FF8D
013AEFF
1F407B7
1EFC8EF
00F0FD6
001B0DD
01352FF
018473F
1EC49DB
1FD60C7
0134C28
1EE51D4
1FFEE69
1F4D04A
1F71123
00E8D25
00B8B81
000A9CC
0013FE4
0019B35
1FA6488
1EA1A9F
01572F7
1E909EA
1E9C5BA
1EADB8B
010F458
1F5104F
1F62564
1ECA733
1E91DF3
00812E3
00790A5
1F49597
0011C2D
01342CB
00B12DA
1F78E61
1FFE5EE
000EBC0
1FE47D3
1F3E733
00B1466
1F92CF0
1FEDA08
00BEF3A
1F7061F
1F38CF6
1FBC776
00B53F7
0047DB1
00F1363
1EFD5D3
00B242B
1F9010A
003CAFB
1F7B1C2
1FE2E05
1E8BEE6
1F74F3E
1F2773D
1FFDDA7
1F38B0C
01130B4
1F0F0ED
01A29B2
0060C35
1E965E7
0051BCF
1F4BD0C
1FABF07
00088F3
1F371E2
1F9F09B
0120E0E
00E96F3
003F2C2
0038280
00B436D
1F55FDF
00494CF
1FBFF21
1F9D45D
010D187
1E9B9DC
003DAFE
010B9DC
1F9D87C
00DF3DE
1F8042C
1FDDCBA
1EF4F5A
1F24BAF
00CBBFC
1EC44A6
00AE62A
002411C
1FED317
000D977
1EF4626
008E7A9
1FCCA39
0058D4F
006F720
1F24089
00F6F06
1E457F7
0071A9D
00249D3
013A98F
1F7BDBF
1F6B9AA
1EAD4D4
1F8C3A2
0028D93
1EF0FA8
01100EE
001A2D1
1FD0E33
00CCF74
00A2C03
006A26F
1F9A7DC
00AAC93
1F21C2F
1EF6625
1FF0147
0120A13
0023C86
0152242
1EA8ADD
0116F34
1F738B5
1FC42E4
1FE9CB1
1E49B7F
01B3E87
1F45E8A
0057EB0
013156D
1EC8138
00C82E0
005AE92
1F4C685
0115B49
0071FCF
00AFAA6
1EE8758
01A5962
1F63FF0
004C999
005DC73
0128E3D
009FABD
006BD52
1EEB04F
00F249E
0074BEF
1FABADD
1EB7837
00C26B7
0176804
1F8F78D
1F9339C
1FC183F
0101287
005ED80
1F3799B
02DFE02
1F18322
0079DD2
1FB44DC
1F76B48
0095393
00A99DC
0106E38
1FDD35F
0106211
1F9CD6B
1EAE1FB
017C519
1F2B96B
020FB3B
1FA5B99
0025C35
00084F5
008EB6E
011C5C6
0020259
1E8B6E2
00F3350
003CC82
0051812
00B0A39
1F817BA
1F2A0E3
01984E3
1F339AC
1ED0CE5
1F56FEE
003EC31
0018FC1
00975A1
012C04D
1FBE976
1FEE730
1F3D767
00B6CFC
1FFF031
01025D4
1F7F063
1F74FEA
004EA80
1EB08ED
1FCE74D
1F06646
1F13416
00E4A86
1F8E464
1F6D182
1F6E515
0083BBE
001E123
1FDAD5C
0031A54
00CCF24
1FFFEF4
0084EA5
007611E
1E93E85
1E99548
001AB50
1F28823
1FA5748
00B8DD0
1FC728B
1FF2799
00AA945
005F41B
1EFD9C3
0124984
002C82D
006F98D
00B6FB5
1F4DD9A
0138B6E
1F17476
1F9DB85
1F0870B
0137501
00767DA
1FE0AC8
1E8C478
00660D4
1EE21CA
000C774
1F303C3
014E5ED
1FF6582
01064FD
1EED097
1E8CCF8
0023A93
00E923C
0248EE0
1FB8F35
1F7EB00
00DD603
1EF830F
001B5D9
1FD6B53
004334B
007E291
01375A2
1EBBD64
006E8F6
00782E0
000D588
001A5D8
1F7145F
1F83B48
0112DD1
0064274
1F40952
1EC79BF
00844DC
1E84089
1F666B4
1F1A4DA
00E6CED
0087673
1EBBAA2
1EBF425
00DED68
1FDB742
1FB9289
00FC1EE
1F83E03
1FE01E3
1EFD684
1DA7BED
1F7B7B1
1F10681
0131950
015B754
00ED4D7
1EAB1AE
00E83CF
1F9E733
1EF6B49
1DAE51A
1EBE042
0043314
1E98672
00EF742
1FCCAD1
002AB5A
1F2628D
1EA672D
00B00F1
000FCF4
1FCA836
00F6E63
1F1802D
1F18444
00E8521
0037691
1D68488
020A802
0063432
00854AD
0000370
000A2F1
1F29E81
007E52C
00A3398
1F044D9
1EC0854
1ED15EA
00C18E5
00D91B3
1F03D7A
1DE3B6D
00E6F7E
1F890C6
1F8A228
1EEDB53
014B4C3
1F205E1
1FF3219
006B271
0086DF7
002DCB9
1F45796
1FFBCCA
1F12B13
003C843
001E6B4
1F3FEAF
1E4B962
00C8260
0090606
0161AD7
1EE465F
1EC7061
1F44E94
005F7DD
01114F7
1FC013E
00C5D47
000B131
00D353A
0054E9B
1FDD8CB
1F8AAF7
00F4B0E
1F8AE6A
0064AFA
1EABA59
1FEA54B
01528AC
1FD81B6
1FFE598
00ABC0C
1F3FE07
1F92ACB
01278CF
007EFFB
013A9B5
0088B4F
00A041F
1E900C3
013FC49
1E9734E
002249C
1FCD1FB
007BC85
00380B0
1FD3396
1FABA93
1F4A9D1
1F7E410
009BF42
1EDA36A
1E6535C
004648C
1F12F55
1FD3B94
1FEFB6A
009190C
1EC1FD5
000BA19
1EF9686
01205D1
1F0188F
00DC213
1EC1D81
00CA6FE
00C4DF3
1FDB343
006D71B
1F9CEB8
0042FD9
0141BC8
1FCC1DF
002E0DE
00A2F9B
0157F0F
00345DF
1E9E284
00B5FBE
004BC85
00B9795
1F47C3A
008CDB4
00683E7
00CB520
012704D
1DA4568
1F88F6E
1FFB91A
1FDE501
0039D0D
013739A
1FE4C34
0058DA6
1FA4BA6
00889A4
1EB46D3
00659AF
009F6C1
1EC943F
0029FB8
1ED4B56
0092F13
027428C
1F2C6F8
005E310
1FA5FEE
0026AE7
00C9888
0009869
011EEF2
0062C25
010947F
0108D39
00FBE67
00F72FF
014C540
1FF069E
1E22499
1FE4B4D
00C97E2
005D6AD
00D48BD
1F550EB
1EF4CB3
00D7854
1FA1FB1
1FE93FA
1EB3B2F
0112B96
1FA398B
0007C2B
1EB338F
1F24C5C
004DB2D
02927E7
1E2C1A4
007EC27
1F4A541
00EC241
0116A4F
010FB84
0074BE1
1F0B0FF
1E9F269
0116738
1F985F4
1FD0A1B
1F594B8
0102C84
1CAEC7C
1FB83CB
0090EB1
1FA175D
1EC1069
1F9C3F3
1F93CF3
0140079
00D4A09
013BF8B
001E3B0
0008710
00ADF19
1FDB991
1F2093F
1F88F77
1FF6EAA
0096308
1ED4E97
010EBEA
1F39BC7
01204E7
00B3BBE
1FD99E6
0123195
1EAADC7
012F29D
1F1544F
0002F53
1F2B438
1F90096
1FDDB15
1EFABF6
1EC7AA4
00FD75D
1FCEBFE
1F1246F
1F8D467
1FEA96D
00D6333
1F4ACF0
00CCA1E
1EB32BB
1F5517C
000C025
1F523AF
0103006
1F89C8F
0090636
0062A7A
1B67C3A
1ECBA53
1EBB688
1F81814
00EF406
1EC25D6
1F79F24
0122294
0053694
00AF123
00BC49D
1F5C955
1FF16E6
0133651
1EC54E2
00C0452
1FED210
009F890
004D05E
00A7162
01557BA
00960CE
012214F
1FF5B98
1F679A0
1F02A40
00FDA1D
009B19C
01136C1
1F4F050
012B1C7
0303CDD
1D2A849
00E4436
1FBBCF7
1F13B93
1F28DC8
012B466
1FC251E
006EDD4
0111CAF
0128D00
041ED81
1ECA9D4
03431F0
1F1C554
1F97C37
1EA34AB
0028275
1F904F9
1F254DA
00DB8E0
1F82313
1EE261F
1EA2D6F
013D7CE
1F46013
1DFB054
1F7D6C6
00C8508
01CA27D
011DB60
00F2ED5
046B93D
1E18895
004879E
0286246
1E97D8C
009ADC9
0109AA1
1EEE68C
00332A5
1ED5259
1F5ADD4
051A5FB
0059B4A
027B776
01427D2
016DEF0
013B98F
0089AB5
0046676
008A6BD
000BE08
0054763
1EA012A
1FC33F6
1F0F6C9
0138F25
1D4CDA2
1EED776
004644A
035A17E
00EA098
1F050A8
0231436
1CD9F9D
1EFFF48
0228FC8
01BA37E
01405D6
013A323
1EAA4EB
1F30618
00FB756
1FABCE9
02742DF
0139F5D
038AAE5
1F6A67C
00B0ECE
1FC428C
1F7300D
011288D
1FF8223
000A34B
1FEFB41
1F5815C
0088EFE
1F82935
1FA0B9C
1DFD4BE
012D0EE
1FD00A3
029A14D
1FA1A7B
00C87FD
047F718
1C45F20
1EC497A
01F5F50
1ED8047
01F63B9
1EBD10C
1EEBE55
1E84782
1F57054
0081E40
02B8DDA
1F589B9
01CE3D5
00D679A
1EE3704
0047AB6
1E9D5B4
004B0A2
1EF3FFF
1F89A65
009D0EC
00C9263
1F16AAA
00E5F4E
00C5B4E
1FCD8FE
1EC7D47
009CC8C
00FE4F2
1E99961
00A62DD
0197C77
1CB4FBE
1F988E2
1EE38FE
1E9EB4A
00C3516
00FD52D
1EAE1DA
1F2F295
1ECCB79
0090E2A
00E6747
012949A
007FE42
003589C
1CE0B12
00F3CFE
1FC667B
1F0FF4A
1FAEC93
1F2CF8D
1F8D28F
0037AE1
1FBC0A9
1F91DF8
00EADBA
012CCC3
1F329EC
003EE74
0023DFD
1F59E85
1EC0CBB
00D1789
1E64ECC
1F0F2BB
1FC7C29
1F0AE5B
021C8F9
014BC03
1EE470A
000A495
1F3B75B
1F6DA7A
0124F6C
003BEB2
1F54538
0020733
1C3F47D
0010D48
003D2C8
1FD6050
1EE8C74
1F2F485
1F9DD14
1E9F593
1F7712B
1FDC7B1
1F85692
1FEB1DD
007EB23
1E92776
1E5CB79
010CF52
1F0ED43
00AB172
1D4F6CE
006FAC9
0003646
002D998
01D556D
0038832
1F979D5
1F5488D
1EFBAE6
001083E
010A79C
00F2908
01318F2
00D07E9
1EB80E0
1FB97A4
1FE06A9
004B0EA
1E97108
1EDF720
1FAA1A9
01159E9
1FFF45D
0062211
01321CE
1F0C017
1F8E5F5
1F352FD
01086A9
0040FFE
1F48751
001A983
1E97D6D
1F50E73
1F0496B
1DFEFAB
000B364
1FE505F
1F125EE
1F6855A
1F0F276
1F05462
0101D5D
1F41708
0028E4E
1F23F8F
1E04385
009D2FE
0045E39
004D40B
00EDF77
0079479
00D221F
0015999
006A4A6
0122FEA
0081755
00C81B0
1F26759
00F3BC1
0124F8E
00E17AD
00098C8
01E77D1
1DBA9AD
00AFE36
012BC48
1EB8804
1F0C7D2
012506E
1FACD33
1FC2FAC
007AD1F
1F0AD1D
1FA2C9A
00438CC
1FEE333
007C02E
1FE1297
1FE3B38
0023103
1FA0AF0
1F03475
010CACF
1FDB1C9
1E9F41B
00B49ED
1EE916E
00735F0
0004E00
00B7B88
1FFFEAD
003073D
006028C
1EC689C
1FA72BB
1EFF750
00F81D8
1F87873
1F5964F
010D493
0102AA5
1F49D55
00ACB1E
0011756
1FE23BD
00000CD
1F74FD2
00D33AA
1EBCA01
1FC5B65
1F4BD99
1F900DA
002AAA0
00CF58D
1F5DF30
1EA5F6A
1EE2731
0075397
1F17621
1F914B8
001F78E
1F1868D
1EBB0E9
01655A8
00A5314
00FDED0
00A2C78
012FEC4
1FA9563
1F3DD44
1F8CE39
1EF2B0C
1F0192E
1F94449
1EA2DE4
1FA1AF4
1FC5486
00066CC
002042B
0053057
1FD7169
00048BA
0009ACE
1F2E186
1FDA5D5
1EB123A
00FC0A9
1EAD0F2
1F4EC7E
0139D05
008C3EB
0072273
00E0248
1F2E2F7
00B67A9
0126745
005673C
0130EDC
00642C4
01CACC7
1EE0F4B
0216576
1F768B4
1F668B0
1F43C98
1F85F14
1F4B664
00BEF0F
0050416
1F900DE
1FD2E10
017119F
1FDDA7E
009741C
0104882
1EBD57E
1F5F902
1E8ECF2
0014862
1E97546
00E60E6
1F168EA
1F3DC12
0157977
0063089
1F380A3
1F1E1D1
1EAF4E9
1F4137A
1FB186F
1E64369
00CC653
012139F
01C7806
0080B93
1F50654
00574AE
0144DBA
1FA6C13
01375EA
00CE166
005E7C8
00AC39B
011B3C3
1F0CACC
1E024F5
006B3E6
1F2B9FE
1FEEF6B
1E84DFA
0127602
1EC9AE7
001FB86
1FC0BE8
1FC50A6
1F7D898
007FFCB
013CEC3
012EE81
1F97DE7
1FD1104
1FCC911
1EDCF80
0227FA9
1F224D4
00E0991
0073EA0
011BA2A
1FADCAE
00E0A7F
1F4D6AD
1F4AD53
00433B2
0027023
1F54B3B
005D681
1F82B57
1D6B1F7
006AB04
1F164A6
1EF3283
1F1BF01
1F3C0D0
00DE845
1F0489B
1F3CED2
0077714
001F270
1FEF24F
0021D54
1FA4A0C
1F53A61
1FFD424
1F825C9
1FC13D2
1EEBBBB
1F7EABA
0036D56
1D6EB37
006123A
1FD9FEA
0054E8A
004E6B2
1F2ED0C
1EB8878
00020D5
01011F1
0048FA1
1F0CC55
01FC960
1EB7411
00AB1C8
00BBFF6
00C0F7D
1F4691C
0008D1D
1F5832A
1F772BC
1F7260A
1F4EBFC
1F987CE
1EC9F37
01152F5
00916CD
1EF2F74
00322D8
1E9E8B8
0133FC5
1F63864
1FAE0D6
1FBB837
0106F26
00F070A
007B844
1F89958
013F534
007F5DD
1F6F6EA
005B369
1DB08C3
1F3B111
1EB5696
008972A
1EF8B59
00D1E3C
014651D
00CE8B2
007E099
0137BDF
1FAACEB
00AF165
1F3A330
1FA54C8
1F89602
0050A01
1EEE334
1E886EC
00138FD
0052291
0062F31
0059B57
00D4C18
1FCFB3E
1F9A5C5
00762DF
0060C1C
1F6E6C9
00D727E
00FB686
1FEE8C4
0116D8E
005654A
1FE3B30
024FF9F
1FD6F9E
1F57AF7
1F9C098
1EBFE6C
1F2BE60
1F91E27
1EC4386
006028B
1E8B270
00F6C9C
1FEA682
0103926
1F4D304
00F7776
1E98FD2
00876E2
1FF79DF
0021346
1F47E43
0095EE5
0255478
1DCD90A
0123370
1ED50EF
1F2BB36
1FD3B46
1F62FBC
1EAA08B
00BF277
00EC339
1F6C09C
0043870
1F8D9C9
0002EF5
1FFBD93
00721BB
001570A
1FC7BB1
1FA7595
1FF1EBE
1EAFBDD
1FCB5EC
1F7134F
010B0CE
00B44D5
1F2E20E
1EAE7C4
1F6AF80
1E156C3
012202E
1F1EF06
017547F
1E5E561
1E4BFFF
1F80E51
1FC1DFA
0029C62
1F28936
1FE108D
1E9B4D6
1FDD92A
1FFC219
1F1B01D
00AA8A7
1FCC5DB
0101DF4
00F1417
1F56C5A
007B1C6
1F152A9
00360C3
0052B64
00A3278
1FA957F
01095B6
00008E5
0037703
1EF8E24
002C494
1F5B09D
1E1D9DB
00CA1E1
001BF66
00FB686
1EFCB15
016C8D4
1EDB1CF
1F2C033
1EE7ECF
012AED8
1F6171A
00CAB58
1F5F44B
015F919
00E52E8
01CE8F2
0140291
00CA840
1FE3A00
00F32B5
1FB9748
1FA9D5F
0011A0B
000CB27
0095FAD
1F865EE
0127FDB
1EC0F19
013AFBE
0177AD3
0081BBE
1F495F7
1E4555C
1E72525
1E8957A
009E371
1F140DA
1F6ED4C
1F8D1EB
1F87C05
0073EBB
1EA6561
1FA22A3
004D1C7
007BE97
0022FCC
0104B88
1FF6B84
008B839
1F37407
1FBCBBB
1FA2DB9
0138702
00407E7
1EAE58E
1FC84D2
00A22CA
013F439
1FC3B32
0072BE0
1FEF6BE
0075F47
1EEAFA2
1FC597E
1FA9151
00B3354
1F57403
1FC98B9
1E47F66
1E98548
00B19E5
1FA2429
010D34A
00B8D83
1F47275
1EF8AE1
1EEF3EF
019A029
1FD8FAF
006D91B
1F7D2C6
1EEE8C8
1F01E4C
1ED1F92
1FA8347
00524D1
011BA99
1EE84DA
1F7D542
0074B58
00C20CB
013B392
00EB8CE
00FC2FE
1F2AD0C
1FFB014
1FFB58C
01ACA47
00071A7
00793FD
1E384CA
1F3E401
1F05657
00061CD
00C2B52
006826F
01407DC
0019B4A
00EC329
1EB5A1F
00CB361
1FC30E9
00918E8
1FDE688
0037E37
00ABEBD
1FD7ACF
00491DD
0074F8A
0080B4C
006B02B
1FAC36F
018FB8B
008C539
1FFCABE
001B795
1EB56CE
00824D6
1E765E6
013229C
1FDADB5
00ACFD0
1F30C69
1E5ADF6
007A425
00DBB40
00C3E11
1F65F37
0086101
1FB3C4D
1EB6CF0
005766C
0096183
1F08ED7
1ECA302
1FEDCDF
00DDB34
1FBE479
1F8B60B
1FD25D4
004654D
1FD63D2
00575CA
1FFB5A8
1EF0D70
0044B40
1F42789
1FF5ED7
1EAD0CB
003706C
1FD06FD
0164E58
1F8AAA9
0088256
007D408
1F42448
1F019DF
1F30A1D
00672B0
008F824
1F6C883
0103DBE
1EBC51B
01401DE
004A4EA
1EC6883
1FAFB6F
009A408
1E86197
01450D8
0125533
1F25968
1F0F2CB
004B401
1F88528
010F679
1F432BA
00AD560
00C00A7
0041E0C
008FB9E
00DACE6
00B891C
0054755
1F9B92C
0036F31
1F93B0D
1F63397
1F5BCFB
1F65FB1
1FB526A
1F3B2EE
010DDEF
00A7AF6
0075107
00B8FF3
1E99D79
1F12460
1F1E3F4
00B71DE
1E9654E
1F59E34
00E4200
00A602D
1F68F0E
1E9AB7C
1E9871F
1FF80A4
005286B
00C9163
00CA274
012509C
00D8674
1FA74D5
00E32B1
1F610D2
00CC5B1
1F30C67
0059E95
01EEFF3
004B834
00FBAEC
00E8C58
0066FA4
00ABAC6
1EC902D
1FBCFCF
1F966BE
00A8ADA
1FB92F0
1FABA13
012C727
1FB58FE
1F4F6E2
010D58F
00D4626
1EE5212
011D8CD
1F4AA4F
1F7FF27
0206360
011AD74
005EB1F
0053BA6
001E2B2
1F91E13
1EF6598
1E1B4B6
00BDC72
1F8C6E9
018F9CD
1FE4BC4
00EF0BA
0135D79
1EDB3BF
00B7D12
00D0AB6
00C73F1
0084C3D
1EE94D5
0081073
1DED109
00D255A
1F4E627
1EB7505
1EAF736
1FD1BFE
00D4DE5
1F3E2CA
1F0E151
1E8A2FA
00F0DE5
1F9739F
0066A2B
1F5F098
1FC40D6
004873E
1EFF257
01C8292
008AF0B
0056B04
008AE1C
1F43ED8
0164273
1FA7593
0148023
0114D0A
1FDB035
00B00CD
1EF31AB
1EC90FF
1F5F856
01346BD
1C0D972
1EB9B0E
0148D42
00089F0
00A45F5
00E5D95
1EA356C
1F5C57E
1F1A25B
012D543
000D09D
0205F4B
1F832EB
1F849EA
1E03D93
00916AE
1FC418C
1F01F8D
1FB134B
0053B5F
1DAE773
1F7FDDA
00A57C0
00B416D
0072EE1
1E8521B
002807E
0135F5A
1D0115C
1ED450D
1D107C0
1FFFB6B
1FE7BEF
1F0E2EC
1F104EF
1F7575A
1EC5AB3
1EDD4F6
0117819
0102D70
1F4F9A0
0104D72
010A9C1
016F59C
1F6A570
1F83B91
1D1E9A0
1EBA863
013EF47
1F07717
1E6B86E
1FAC333
1D29409
1EFB3F2
00B7F39
1FEF26A
0053EEA
0004EA3
1FC4724
1F3339D
1E63828
1F33CEF
1E0508F
1F70787
015B249
00F0C68
1F59353
1F77C9A
1F1BAF7
004C6E6
008F79C
1FDD52F
1F7D654
002C62B
1F9BF0A
022D18B
1F5B2DB
1EE6227
1D26CA7
1FF3FD7
1E90016
1D31C79
1E4045D
0020BC3
1DD2E98
1EB307B
01EF368
1EF5867
1EC8C3E
005DE10
1EA85D3
013843B
0053125
01032D8
1F0CC67
1EFBA5D
1F40A26
1E96E42
00EA5CB
1ECFA07
1F49A91
011F80A
1ED7F7C
1FAA7C5
1F87E65
00775A9
003E77B
01F37DD
00AA758
1FCD294
1D5E31B
007011E
1FC3C48
0111B07
1D638E1
012F0AF
1F130C6
017761C
01CBE19
005015B
006086C
1E8F5F9
1FEA1E7
1F0FBA6
0121EE3
014AAAE
1F33307
1F4869C
00C68D5
1E8A06D
1F2C538
003972F
1FB3167
0058445
1EF7D99
1EA0D72
0063090
014428A
1F7B855
0008A93
0082714
014665C
1FB78AD
00F79EF
0148924
027DC78
1DFB949
1EDA9B4
1FE8245
00835ED
01C73D5
013A8A2
1F6A51F
010410F
1F16281
0137E0B
009C375
1F0A781
00BEEA1
003E6DF
019FFD4
1FCF3E6
008FA0C
1FDF691
1F3BB9C
00B0780
00491EA
1E92C4A
0104B8E
1ECE397
1EC0E6B
1FCCCA5
1EEDE61
1F07C07
1E887E8
1FA568D
00F44B4
02BB411
1C31771
006DA15
1EF8809
1E60BC7
01EB651
1F06275
010A228
1FE05D8
1F6117D
1F1CCD9
1DD88CE
0160B59
1F33E4E
1ED1190
00DF2A8
003FED9
1F49E46
1FFA1EA
00EA8C3
00FC2BE
006DCB7
1F56E74
0068684
0015FC3
00F6B48
032DD67
00882F5
00E15E4
1C9FF9D
1F04AE4
0085587
1EB5654
1CBE098
1FE2E9B
1DF9C5B
1E93A6B
00F022B
1FBA359
1FDC395
1EBAC56
0056285
00E8226
1CDD2F8
015C696
1C8C070
011ED76
1FAF142
0129EFE
1FC1558
1F30409
1F00B80
1F0EC7B
006B953
0082930
1F0E3BF
013773F
1FF9F68
042FD90
1F4403A
1F9D9E8
1C5CC9E
0099D41
012E771
1EF82C2
1E8E83F
0043FEC
1E4EB23
1F6FDFA
01112E8
005C75F
1F24489
00AEA24
00A37C7
1F7E6B8
1E02A44
011EC52
1EFF185
1EA11DE
1DC94EE
1E88CB2
1EBA3B2
1FE16B7
0006131
1FE4EAE
006AA86
0132872
00A9A49
000FC96
1EF9BFE
0357D08
01061F7
0079D7B
1DF1191
0061867
00913A1
1F4E330
1F112A4
1F0C1E9
1DC195A
1EED180
02588A9
1F883C0
1FEFFB2
1E7D4F5
000BDE7
1F24DD7
1E2B143
1EE48D5
1E28D9F
005449A
1B672C7
1ED5714
001FB16
1FDE344
1EC3700
1EC68FB
1FB9462
1FA45A3
1F60691
1FE8336
1F67524
0159EF8
1EA8C6B
1EE005F
1DCD8D8
1F9FBD0
1E87BA5
1F151D8
1FECA6B
00CB0F1
1E9F719
1FBE3D7
0012009
1F50971
1EA8B87
001AE33
1FEE843
1EBBE01
1F8B6A9
01290E1
1F1E523
0067FDC
1EDE5C4
1FD008E
00C8734
003438B
004D9F6
1EE85E2
1FEC862
1EFED64
00044C4
1ECE557
0099680
00AF67A
1F59A16
1ECDF1B
0026039
00C7419
1FE6765
00D6A30
1E0C057
1FE22CE
1FCE2D5
1FF5A2F
004DC35
00D43BF
0100045
1E7EBB2
1FD5972
1F22F4F
00330BE
00BF28E
1F4643D
1F53EFA
1FB323C
010F753
0064122
011ABF4
000FE90
00FF20E
00D9E96
1F1DE3D
1F46EBE
1E86BE6
007C201
1FCF0CC
011AA36
1F70349
0102213
1F436BE
1EDC7BE
00EDFBF
1FF1DB7
0013A75
00E9379
00FD514
003E40A
00DA447
1EEF1A2
009BC37
1FEBC69
1F63C66
1FBFD76
1EAE38E
00919AD
011B306
1DEFDAB
1E98CE2
1EEDA1D
01485FC
1FCCD99
01054B5
1E96AE6
1E9DB1E
1E935D7
1E9296B
007C1BD
015B435
0105C28
00CDAAC
1E4C2F2
00FBFEE
1FC6664
004A5A4
1E485AB
0043D27
1FCB941
00D2B69
1E84B9A
1F2808F
1FD94A2
00AE5EE
009DB35
1E9462C
0072972
0047286
1F3E07A
0007F0F
1D601AF
1F4C9DB
1FAC4A1
0019213
00D2BCB
1FBA754
0094229
004DD73
1F21476
1FF9B35
1EA882E
012D68B
0022218
003A77A
1F0DC90
00E57B3
1EEC85C
014F9F5
1F4883B
00B4729
1F6FD27
1ECEC25
1E48ED2
1EB5BE2
1FD30FB
010D3EE
1ED778E
1F4D2DC
0174EA2
1F004B9
1FFC8C2
1FA9CBC
1EB15C2
00A5A17
1F478DF
1F3820A
1F984E9
1EDAC62
1EEE3BC
0004992
012A977
012B915
003EB40
1F176C2
006B5FA
1F8A4E0
011867F
1F3089A
1FC0662
003F964
1F96E2C
00F2A4B
01BA020
00D7C4E
007A274
1FBCF15
011A776
0092AA3
0152064
1F08F6F
1F1F174
00DA69A
1F906D8
01066D8
1DF8BC2
00B0203
1F539EF
00D0EBC
1FF5B37
1FDF5F5
1EB8E35
1EA3C1B
1EAF890
0033CD8
0138D1E
1F59674
1F54C7A
1F7EC92
1F1438C
1EB3230
005C56E
1EEF513
1EBF761
1EB8352
0131B91
0061F64
1F3129D
00030BF
00DEF9C
1FDBEC6
00CD4FC
00919B7
1FBB7AD
012C55B
01967F5
00E0B98
1FA8A86
1EABD04
1FBF2C2
1EBBDD5
013BC1D
006BDF5
1F75C03
001C2D8
1F7DF7A
1EA72CF
1EA10FD
009ECDC
000119F
00DD3A2
00D4F54
0063036
1F69CDE
002136A
000ACB7
1F38276
1FEF03F
00BFFDE
1F47E2C
1F2ED72
1E8AB16
005F61D
1F4B16E
1FFBE86
1FC0792
00DA00E
0063BB2
1E9F189
1F9DE3F
1FB3209
1FB9EBE
005C237
1F99B4D
0058965
00D6135
00BA409
00146E8
00133F5
01173FA
1FFD118
0062B99
00A4D3B
003BCA6
1FD0EF9
1F840CD
0049A0A
1F19075
0021B20
1F8A138
1F8CD0B
0107D07
1F8BB34
012703E
0131FBE
1F96731
1F8C1FB
1F8F988
00DE0D7
013EE3A
1F5DB06
0233C6F
0001D03
1FE08B8
0055FFB
1FA8F6A
00C3DEC
00FCD91
1E85273
1EC8972
00AD283
1F865CE
010327A
00D17E7
1E88A54
1FFF224
1F69E1E
1FE273C
012CFDF
1F93324
00C05DE
020CA66
1F901BD
1F0E096
004DF95
00B7ED0
1FD685B
1FF9A04
0090E14
1F2CBFF
003CE9F
1F97838
1F9719B
1F7EDF6
0116472
1EE16BD
1FDF900
0074496
1F3E94C
1F33340
1FB8BA0
002152C
1F7CC84
1F20326
01739EA
1F4C7A3
1F8F916
00C6AB9
0027EFD
1E9FCE6
00486BB
012519E
0043739
1FB632A
006C486
1DF505F
00E131B
1FB8841
1F2E8A9
1EA7DDA
1EC38F0
00AFF69
001CEEE
00A29E0
1FAF0F7
01108AC
1EC050D
014CB4B
1FE4DB7
1F3347A
1FE07A6
004D61C
1E99090
1FC3DF9
003BAE6
013C2E3
00B9A75
010ECBD
0038D92
01A9AC4
1EA2A25
1F4C555
012B4FF
00076A4
1FC3EFC
1FDA9DB
00CC94A
1DFE6B1
1F2DDD3
0124E36
1EA12A0
00D4D6D
1F39DD6
005BEB8
1FA7452
01ACDEF
1F0DDDE
1FAE249
0121679
00E782E
010F9D4
1ECFA04
1F4D150
1ED6E57
0065CD4
1F0841F
009F876
007E2D1
00BE485
1FAA0B1
1F9D784
1EB85BC
1F1EE55
1EA3727
1DF1875
0192DC3
1EA0998
00FDA28
1F93508
1DD6386
1FCD104
1F8D2A1
0070086
008DC0A
1FA94A9
1F48E1E
1F62C1A
1F53E45
1EC3C13
1EA9AA2
1FE5E72
009044F
1F14FCE
002342A
0032954
1FB27C5
1ECD8FC
1FC238E
1FA5530
008576C
0033D86
1F0CF26
1EF1147
0086AB4
00F76AE
00A1E9B
1F78984
00B95EF
1F0DEC1
010CD96
00533A0
0021858
005B952
0053125
0024528
005BFB2
1F6F61A
00A4A55
1EC1B59
0183388
00D7CCE
0223D0F
1FC22EB
1EC1A8A
1FB79A0
1FB4B0B
1F40690
00BE6F2
1F777F5
009C956
1EF706A
0060754
006E7C1
003DAB3
1EDF7DF
0041FA4
005F0AC
1FC1ED4
0031E8F
1F68CB4
001B039
006CE87
011E4B4
1F7D259
1EA497E
009E75D
1F63591
0145026
1F12613
00DB5F8
1FB7D83
01476E2
1FC90C0
1EED78B
1F4A701
1F54113
1FC6D4D
1EF8EDA
1F997A8
01142C5
00A14F5
00C4EEC
0010287
1FB78EC
0122F38
0007F28
1E9863B
018B6F1
1E92E33
1F2D318
00F30A2
0286D8F
1F5A697
1ED6828
00B73B2
1FEF023
1F292CA
00ECA83
005B19C
0033B03
1FE6913
009EE06
011AA11
017958E
0081CE7
1F798F4
1F9CBDD
005F4E7
1F2E483
011DD12
1F57A83
000446D
013561D
1E8D735
007CE72
015A23B
005D6A6
1FB8644
0027CDB
1FAAA4E
1F3E164
00391CD
1F7C9F3
1FE98B4
009E4FB
01309F4
0046149
1DFEC94
1FF5459
1EEAB09
00904F2
1F4D22D
013AB2F
1EA01B8
1FB60B1
003CCD1
1FC9821
1F6D5D8
1EB77D9
1EDD4C2
1F40AB2
00C1188
1F29146
1F47059
1F09EF9
0127140
0119694
1EBADC3
00AF4BB
0083DC4
010677E
1E7CF20
0076D2C
0097DB2
0053844
01DBEE6
1ECCE7C
1F4A46D
013A4D8
1E7CD6A
002CC13
1FE2D1D
1EB58DB
009C74C
012667F
00CD442
00611C8
004263D
1F42A94
1E142B2
1EE365B
011E896
001171F
1F0616B
1FCD8A0
1FA6372
00A7646
002BD10
1ED71DE
1FF6284
1F4AC23
00D8330
00E2DFC
1F8028A
00EC8CF
1E945B1
1F10376
007BD19
00201D3
0125663
1F678BE
1F8D387
1EEC28F
0101DCA
013BEE2
007ED92
004D8AD
005E02C
1EA08BD
017E9DA
00D84E0
003B9B1
1F81B69
1F9D98F
1F60EDA
007577B
0141719
1EE40A1
009F0F0
1F7D8C7
00C450B
1EBAF39
0011784
1FBBBF2
00FE54B
00914E3
1FB1AB5
1FEB260
1FFE669
001743C
003B6C3
0124B51
0131B55
00CB457
1F17FF7
1EAE796
1F6EDFD
00C4918
014010A
0054414
1F86BBC
1EDDA94
0143E30
1FF2ABB
1F808FE
00DEEB0
1F57B64
1EEECAF
006BC50
1EEB1F5
1EF6325
0148777
00BB5BA
0121EC7
01A6156
007F4C0
1E9D2F9
0010D1A
00318EC
01384F1
1FCB0CA
1FA7188
1FF3335
00D5DA8
0224BAF
1FAAC6C
1FD908C
1F33231
008D36B
010F69B
1F812BB
00B9B57
008C980
1F26412
0064073
013ED67
0115494
00F86B2
00A0431
002A15F
0098E42
1ED3B8A
00A7995
00B3CFC
00DD784
00E7A54
1F2104B
1F2D5D1
009C212
00D31B4
00D1C9A
1F6E1B2
1F9878A
0016BAE
1FC6E20
1EFB4ED
1FD1B44
0045DCE
006DC83
0083AE5
1ED73E3
1F3B5D1
1E84E71
00558BF
0060A40
1F684F6
1EA1F27
0002872
00A1E14
1FC8913
1F69A55
1FC328E
1F44994
1FC259A
1E8E2E4
00291DB
00E9068
007053E
1F5DF3F
0005273
1F89437
1F78538
00F6F6D
0109B89
012DB0C
1EA9544
1FB4643
009123B
1E4CF50
1E80468
1F673CA
1EA2B07
1FA7A6B
1E9E2D3
003E154
1FE5EAE
1F2AB5A
1F7CC3F
1F44D35
1D5B9EA
1FC307C
00E3A52
1FB829F
1F5A4C5
1F215DC
1F51DE9
1F9D17A
001C543
004E886
1FB3BE7
01AAEF0
0038A8B
1F5EFCA
1F284ED
1E92B35
0008C5C
1F72B9E
00120CD
00960FA
1F3983F
014A786
1FBEADE
00DF955
0015F01
001B585
1F54BAD
1E9F057
1D655AF
1F2867F
1F078AF
1FEA301
016CA0E
1F4F5A2
006A742
1F6D5F1
1E96F85
1FCCF8F
1F25A45
1FB9402
1EF8CC6
1FCB0BB
1F11FA3
00A4B85
00F132D
1EE93C5
1FC63C5
009E2FA
1F21CC6
1E1C911
1F5173C
1EBECA6
1E35D26
00C6447
01784F3
001C6CF
0057094
1F7BB03
1F407CF
1F06944
1F0D4DD
1EA3AEA
1F0AC85
1F2BA46
1F3CBFE
1F57A68
1F9575D
1FBE277
1EB27AB
1F742E2
1EE1076
1FAEB05
014615B
1EC7AC4
1FF3DDB
02706ED
1F9A1D9
0006996
1D5EAEE
00FD520
0013F92
1E0C1CA
1F5ABE1
0100794
1F2F2DD
014446C
0217D00
1ECF5E9
1FDB616
000855C
1F7BD8B
00A66D7
1E3CEA1
001AA2D
1E47668
1F2702C
005B3F1
1FBAB7F
001FE75
0028C4B
1ECF4E3
00AC3ED
0010FA0
1F4761D
1FF23FB
1EB17A6
015CB65
01B4A26
0012C95
00F5348
1E74936
001D7F4
1EC082B
1F67275
1F1ADBB
011B99B
1CE85D3
01CB797
032B9A5
1EF7F65
1ED7750
1EE7B3F
0122340
1FF61A5
005A64E
00323D6
1E46467
00E0042
02C7572
1FD3E4E
1ED28D2
1FF2C3A
004A458
1F5BFDE
1F67CF7
003AE3E
1FEEC97
012AF0F
015D33D
02452B5
1F87C04
00F5805
1F0DA60
0055FD3
0015131
0170EB6
1C42A19
1FEA4C4
1E6F528
02BF956
02A5D96
1EB57BB
00BEF2C
1F507E4
002297E
1FE9DAF
026EE30
1FE51AB
1E0BBC3
1EC79AF
02750E9
1FD9949
1E9D98C
1FD72B9
1F2EB99
00F66CA
1F46A2C
00725B7
0144BE2
1FAD287
1F446EB
008424D
000B801
1EF103D
0036D5D
0041F5C
1FC6429
043FB1B
1A9374E
1E9B127
1F43B35
1FBBF4C
02463FE
1F144AD
00E4B7B
1F2389E
1E9EB6E
1EC99A1
1E743F4
1F8F900
1E0FB5B
1FCA3FA
1F8B97F
1E9FD36
1EEB820
00A8FDA
00D20AA
00CE2EA
01722FA
0139DEB
1F8DC58
00492A5
1EF855E
018A25E
1EF3619
010B456
1EAC9DB
00E8971
0043967
00834E8
1E6F99F
1F5B549
1D54095
000ABA2
0098F28
1F85B53
1F65A70
0081B5C
1FEA961
006318C
1E8F1DD
0105870
1E66BA4
00D6FF4
1FD86DD
0041F45
1FCD8EC
1F36756
1E8FFD3
1F90EE3
1ECD1F5
013FD91
1F3B5A1
004F17B
0092AFA
0073E85
0106760
0087841
1EA8836
1F98688
002E45D
1EF0A69
1EA552E
1FF78D9
1E8B3FB
0059663
1F912C9
01567A2
1FA3230
00F45F9
0150418
0007E91
1E37798
1EEF2CE
1F01D59
1EFE0EF
001B937
005F7C1
1F9EFCF
006E651
007C91B
1F37780
1F73F85
00FE42D
00BB7D6
1F02E6C
1ECA892
024599F
1F5E10E
00F4394
1D420E6
00E1C38
00A6211
1EF9CCC
1F5CE88
01341AC
1FAA2A0
1F3D017
025D42C
1FB9999
1F931CA
005E858
011B91A
1F0804B
0052D6E
1F2E3A5
1D35926
0007206
1D71133
1FE198D
1F04E30
1EC282B
0023C1B
014DDD2
1F69A24
1FD00E2
1F4D49D
1F6AB1B
00B001F
00B94F8
1FD8A8D
1EBD604
1F18C15
00BA074
1FA36AE
1F2A203
1F9E954
1F8F437
1FA806A
0116B74
1F5A672
00CEFAD
1EF6B9C
1F295D7
1F2D9F7
1F57D47
1F2426E
1EA91D2
1DB572D
1EAABA8
1F27781
00EB608
1FEB367
1EC72D0
01041A0
010463E
00C7D77
1ED0912
1FECBF8
00C78DF
010EFDB
01B8500
1FF3D00
1E91E46
1E329C9
1FFD35A
000238D
1F5D360
1F42A7F
0079CFA
1FE594A
0121D5B
1FBDCAD
1FA450E
1E8CD07
1E952C3
00E09BA
00859AD
00A5C09
1F544B1
00DCC29
003DA50
0001A5C
00F03A4
1F2FB28
1F4EEE4
1F40006
1FBDF54
1F117F2
00901E3
00F77DD
0016AD6
1FBFF4C
1FAAD3C
005F126
1F3191C
1F6B47E
1F0D957
004CBA5
1FAD6BE
1E14C7C
1FBB714
0134169
012B1B6
00BFEB8
00BDEC1
1FDE4B6
1F73B9D
1FC02ED
1FAEC1C
00E69AC
00ED467
1E7CB59
1F369C4
1FFFC0B
1E8F2CD
011E942
1FC9432
00FD329
1FA6007
0095762
1FFAC93
0138C40
1F2D34F
0066BED
1F645A7
001E381
00EAA31
1F78F5D
00213A8
1FD034D
0121FF7
0011E31
1FAC800
1E9A4B6
0053A69
1EA8C96
0147DC8
1E8BAEF
00D8FAE
007DCBF
1F8B591
1FD3B19
1F9500A
004423C
1F36C44
1E63215
0144C45
1EEFF20
1F20589
1E93F68
002101E
0033F7B
001752C
1EE3EEC
00A6F04
013F5A2
004F1F4
1FAA564
001221D
1FCC749
1FB8714
1FAC1BD
1F1CC49
00842D3
0057165
00EB09A
1EEEDDF
000FD3D
1FCF6AE
1FAC24F
0068F44
1EF3B06
1F9CE0F
01C8FBC
1EA4DDD
0181AAE
0003EDC
002C718
0097EF2
009FDD6
011F4AC
1FEEF73
1F81ED8
1F79B01
013A475
1F7E899
1F5303C
1EFFC17
1E91242
1E90B84
0007838
00385A2
00FBA0B
0114AC3
00D7CD9
019D07E
1F47438
0184E46
1FF9771
00683CD
0143111
1FD389A
011D2F0
1FD90D1
1F092FD
00B632C
00604DD
00F3A43
00CA827
1D6A65E
0132BBD
0006F66
00F1C32
0059E27
0058043
009AE9E
1EF96C4
008DC5D
0048906
010DC71
01B9FD5
1EAFF6C
001381B
002087C
01360FA
1F0BAE2
1E9B3BE
00DFCC4
00E2199
1F025AB
1E2CD78
0096E07
1ED55B0
01304F3
1EFA019
001A423
1EF0D73
1ECC35C
1F0748E
00A8203
1EA9476
1E169AD
00FDCD3
1F30C4B
1ED592A
1F3F988
0117618
1F49EE0
002B01F
1F8BC3C
003497A
00E5041
017F699
01291F7
1F86343
1FCC975
00C1996
1F53C7D
1EF9951
005A304
00AB78D
001558A
1F719C2
1FE9E9B
1ECB301
1FA747E
00A3E43
002DBE7
0052B7A
007C3EF
00AFFE5
021A216
1F73390
00AA7A8
1FB2B12
1F23C26
004593D
1F4926E
1EB1F51
0099E67
1F490C0
01476C0
00B9F03
1FC1953
1EF46E1
1E92FB5
1F7AD55
00D63F6
00E8CAB
00CC592
01A0E13
01BAE33
00EC373
010D8D4
1FB0F78
0010197
1EEB9E0
1FBEEEE
0124CAC
1EF96C9
1EBACCD
017955E
003962E
009C9F2
00D2A30
01FF580
012F0D1
1F5AA85
1FAD801
1FBE398
00BD5CF
009B584
0088142
1F0E315
001DD34
1F6E7C0
004A8D5
1F708A4
1F2EE71
0092F6F
0128349
1FF5F81
1F79E56
0054D40
1F9F23A
01EDC4F
1E8B9AD
1F3C100
1F74C06
0075C6C
1F8535E
1EFB5B8
0107CFF
1F183CA
004F536
001918B
00F3179
02187F2
00274D9
1F2338A
1EF9536
00157D4
01103C3
0040B68
1F93FD6
0119886
1F90630
1FF6CE5
1F808BD
1FEE52A
1F13EF2
01570C0
0127D7E
1FFC430
1FD1C82
00BA245
1F2948C
00264DB
0079F3A
1EE6276
00BE970
00BB79E
1F8DF99
1F56A11
00A47DB
013F41B
1F62A42
0031A6A
0064DEB
1EBCE71
1F508A8
1FD6442
1FD0B87
0104B35
0122FDB
1F29385
1EDB5CD
1E9543A
1F73D9E
007599E
0117EB1
00901B8
1F2BE78
00C7615
0007BDB
01046E6
1EE832E
00C51BB
0139A81
01B5DAA
00CA207
1EE0CBF
0110C60
00FE543
003261F
1FD98ED
1F5B612
1F53D6A
1EF8689
1F5553E
0120B67
1C975E1
1FB00D7
1E9BFA7
006BCE3
008E642
1FBFA87
00CD92B
1F6F313
1E8A2B2
1FAA30A
1F175DE
007CB9B
1EE6708
1FD7857
00AF07D
1EB84D5
00E929E
1F2FB49
1F3FA24
014816F
00A9F17
1FED9C0
1E86761
010A05D
1F06414
011C7E5
00675D9
1ECF3A0
1F4620E
00B36AA
00A3440
1ED9644
1F48EF5
014078E
00315B6
1FE3D84
00008C4
0057068
0060D21
0110740
1FB430B
1EB4D16
0091A0C
01CE7C5
1F4530E
00FAEB0
1FAFCD7
00009C5
1F834AF
1FFDC8E
01A87B2
1EE3FDA
1F3AF1F
010A3FD
00F63A6
1FECEAB
009AAF4
1F07293
000626C
00A4792
012926E
00E2C44
02C4A48
1F2D6A0
001EC62
1F7B87F
1EA4CD9
1F1AE08
01445F9
1FEEAE5
00A1A4D
1F6C496
1F60D1B
001A4D2
008BC82
006D8F1
011EF50
1EE5BAA
1FC1932
1FC9A74
00BDE85
1E3709C
00FF4BA
1F568E6
00D343E
0025D8D
1E821E2
0086327
013040A
007D973
1EA3133
00F0309
0049942
0080592
017B53A
1F47466
1ED3581
1F8C99B
0095EFA
0053D65
009DE38
00A9B36
1EFDE32
007A78B
00BB0E4
1F2132D
1EFF543
00A1230
00A9453
006087C
1F09CE5
1F79FEC
00F930B
0120B0E
1FE89EC
1F9F54B
005DFE3
1F60BD4
0008A8A
1F660D6
014B197
1E9AB27
1F99830
1F9E2CE
1F033AC
001FD18
01B0508
001300F
1E7A5B0
00E27BD
1F93EC9
1EF2E13
0108C78
1FF71A6
00520A5
0003E8A
00E76BA
00D1068
1EE3FAC
016EF73
00C4CB4
1FB4AC5
1EE1109
1EBC73B
1EB6A41
0126561
1F61C9B
0017581
002A5FB
1E5A599
004F46F
1F359B6
1ED0D69
005C707
01419B4
000DD2C
0065FDE
1F8E61A
1FB8154
1EE5A74
1F2AA5D
1FA81D0
1F4B2EC
0015186
1E95DC1
1EF4F4D
1F8E764
1F8BA63
010B397
00245BB
002596B
01796A5
00FDD68
1F7F07D
1E694DE
1E99C5F
0088E8E
00B4596
000DEE9
00137F8
1E7FB92
1FA2506
1F0CCF3
1EBEC2D
0079A10
1F16FC4
1F95436
0124719
1E9BC3C
1F82AE8
007FCB3
1FFF3FA
1E7E127
0078A5A
00FCF5C
00C4A69
1F28467
01278E4
1EAFB67
1F89648
0117BC1
01022A6
1F58B0A
1F0DE42
0014159
00EC6D8
00FBDF9
00140F8
1ED68F8
1F54B43
1E588F6
0018A18
0073C23
00D9B50
004F0A8
1FE37BD
1F06011
00C7FCB
0131013
1FADBCB
1FD1DB0
0101684
00498A3
0111A4B
0092FE5
00E4074
1EF81CC
1F41865
0048E3C
1EB2F54
1F3867C
1F52938
1F24D8E
1E95AE7
1F95566
009B6AA
00A2176
009E05D
1F45637
1FE0404
00CE55A
1DA7C2B
00278D9
004D9AA
1FE8BBB
0205B7C
1FBEF6E
1F9F1AA
00CE3BA
00766B0
1F80156
012FFB8
1F61F77
1FC16F7
1FFF687
00231EE
001207A
00AF3C4
1FF589D
1F4DF99
0114022
1F686E6
1EA86B5
00CB8A1
1F5ECF1
1FDEEDF
00EC5C6
009439F
1EC687A
1FDCF2B
1F5EC71
1EFBB6F
1ED4FFD
00631DF
018EB2B
011BC52
1F7C0BB
02D30DA
1EF6454
1EB7A43
1F78946
1EEF402
1ECD15D
1FDC63B
01BAD37
1F8674B
1FD4F20
1EBF0DC
01EBE01
1FE8ACD
00B24BB
1F9D620
1FA2EB9
015D107
1F325F0
0063418
1FDB4BD
005BE39
1EFA9AE
00A6FCF
001A290
0049D85
00871B5
0073348
1F05C33
00F9D00
1EF50E0
00CE060
00C7DD5
010B5E6
005D6EA
00EA475
1FB5410
00A184F
1FD27A9
1E91B14
00EC318
1F5526B
0031CB1
00F8606
1EDE350
00C5C38
1FC6C1A
1F08127
1FFE47E
1EF6DEE
00D4C2B
1ECFF92
1FDEAB7
1F94642
1EBD4A8
1F12546
0125CB6
1EE440D
008569F
01124DE
1F47C87
011A7F5
01061F3
01211FA
018CA07
1ED90E1
1F21F37
0027F51
00FD587
1FA5E9F
1EF1F8F
004E78D
0038E98
00D6926
1EB4CEB
1FD49A6
1E195C0
00110CB
1EB55B2
00EEE9E
1F5CDE9
1FD1D5E
00CDC7D
01194D3
1FBB4B0
1F25615
1EAAFD2
0155931
1F0AEBF
0006273
1FE408C
000F1AE
1EC3993
0058C58
1F6CB24
1F9DB1A
1E94ECC
00CD816
00BFDEC
000F714
00A906C
00829C3
1FFD0F5
00C9F8A
1F4C1B2
01453E7
1E0DD5A
01498B9
0174D50
0019323
1FF82CF
009AF3B
1EAE0C5
00C5A52
1FE6458
1FB480F
1F1E406
1F7837F
1EC073E
011AC41
0058F08
00B8AC3
1EAFC3B
00CE14B
1F1F48A
1EE3D8C
0185439
007550E
00ED547
005F1E3
1F0E585
0005DD2
1F9D95A
1FA8C7D
1EDA1AA
1EAC862
1FB6D99
1EA10F2
1DFC5D1
1FA822E
013CE25
1F7ABD6
0037A2E
1F8928D
00AED4A
00546F2
1FB5AA8
00EC7E1
1FC239B
1EF6D5B
00FF87A
00C3753
1FE2368
00DE103
1FEB9FC
1F87C0A
1F95738
0110DCE
0159E4D
0006A07
1FE9D25
1FFE824
006E18E
00463C3
00ECA6F
1EF2732
00803C2
1F308F7
00D167A
1FCF635
1DCB7C6
00704C0
01C76A9
1F39644
1F18603
1F9B846
00BAD70
009556C
00CDBFD
0109841
00DA805
00FC38D
1FFA32D
1FDD5C3
00DDDC3
1EFA48A
1ECEF3F
1F3611E
01318E9
024474E
1FB49F2
1F2BF84
1F87C50
02CC973
0207A68
1F21806
0016A06
010892A
013E4FF
1F15F1C
1F7359E
1F14536
1DEBE04
1F87FDA
020F6AE
1FC8768
0134473
00BEB1E
1F727BC
1EE2776
01613BC
1F8D55E
1F2FB75
1F51691
1EEB08E
005D4CF
1FA58E1
1FA74AA
1E839AF
00FF8C3
1F24DFB
03C9230
1B6D138
00F32DC
1DD2221
01E1D18
02D0665
00A0CFD
1F2F740
1ECC2FA
00B8786
00445E2
02690C7
012B031
1DD61EC
1ED6FFB
03C53C5
1FE73F3
1F61911
1F4574D
1F90EF5
0049134
1FF7D76
000AB52
013BA50
0076184
00FD64C
00CF76E
00AE21E
00199E1
0079A10
00FA9F9
1FB900B
023E9DF
1AFC8DA
1FE5219
1FDAA1C
1F9B7F6
01D1590
1FB9692
0045E9F
1EEAD14
1FCD7C8
1F69EF5
01FCBF7
1ED781E
1F682B3
007B15D
0012403
0023687
0025B03
0019651
013D161
1ED605B
00BD28F
1F75B52
1F638BD
0088207
00CD7D1
1FF365A
1F8BF9D
1F340D9
00D592F
1F9A159
1FDB466
02F0C83
1F1E465
1FB0657
1EA6898
0006FCB
1F8621B
1FCC280
0060A23
1F26E08
00DA743
00A401A
1EFF436
00DD43B
1E483F8
00C5D93
01463C0
1EAC38F
0066223
0146E59
00065FC
1F22062
1FBF6B5
00077CD
1FCC6FF
1F303B3
1F7A288
015AA2E
1EC87EE
1F7AA51
004E0A1
0024D5D
00A9324
00DB10B
000B0DB
0015E84
008C58E
01593B9
1F20929
1F99929
1FDEAAC
1F5F3D9
015DAE2
1F0CE96
1FE9F26
003E42E
1E4CA8C
1EF46C0
004A7D2
006F51E
1F3AD51
0027DB3
1F7DFB7
1FF777F
1F1CC95
00D80BB
0029C05
1EADED7
006C8DD
00C9A16
1FB1C1F
001319A
0038B98
1EF801C
1F5F30A
00B1361
0088139
00FF70F
1F53885
1F91B04
00CE86E
1F8643C
1E990BC
00142E4
000989F
1E877F6
1F0BCAF
0099D5C
1EFD6E3
1EAA262
1F53866
005D50E
00B2213
00FB635
0052AEC
00833D8
006077C
1FC0319
006C14B
00AB4FD
1F5D626
0024435
1F38463
1F34E67
1FEEF88
00FE93D
001DD18
016118B
0001F2D
00CCD84
1EA86EB
015915D
00A7EFB
001A160
1F1D6D2
013A2F4
1EE0D24
00E522B
00D44E1
1F0B200
1E3B559
1EBE08A
1EBB902
1EFD4A9
1F9C40C
0112A9B
002353F
00AC8E2
1F6B60A
1F8F27A
002A212
1F142AF
1ECFFF0
01A4202
1EA6F48
1FAD902
1F87D26
1EB5917
00DB742
0117993
1FBA36F
1EAD9C2
00315AC
0271B7A
1F4F27C
1EC94DD
00FA164
1EFE670
1EFC8E3
000F60D
00ACDFE
0113010
1FC54AE
1F3DBBE
1FE5DE7
1E91AC1
011D1C8
1F6DBC5
1FEAB92
0010461
00DAAFF
1EFCB33
00D6884
01113E7
1F27B1A
1F5B665
1FCD42B
0039A46
001CD74
1F88527
1F8B74B
1FF0A5F
1EC6464
1EB2545
1F78AAB
02285E1
00C26E9
012040C
00875C6
1FA5CD9
1F81399
007313C
00F6B89
0046E6D
1F2E872
1E97782
007AF63
00924AC
014BCDE
1F62CE4
0048430
00BDAB3
1EB5DE3
00360FD
008D1EC
1F6FBA7
1FCD10E
01D2A63
000631E
1F42209
1F272EC
1E98E5B
1FA83A1
01A7259
0025CA6
0064F0F
0058FB0
00841D6
1FD152B
005D172
0107F24
1F8FB47
1FFE45D
0134F54
1F29D18
1FF932D
1F26EAD
1F28E28
1EF9BF3
00CA2A2
0035568
1ED9EA3
1F584CD
1EECE07
004879D
1EF88E2
014849A
00B294E
1EB5835
01FE620
1E9F2E3
00D45E4
1FBF8F7
1F6EE1A
1F0DEF7
1EAD77B
1F4B723
1FF67E2
1DD2EF3
1F6A9A8
1FD6033
1E9EB2B
00375EA
0015FF9
1FBBCC5
1E9A96C
1EBDD4C
1FB4BF5
1F21631
1F70EF5
1E82174
1F96970
1F3F611
1FE511A
00BD6E6
014DAF7
1E915E6
00B396B
1EA5A99
009C979
1F5BE8C
00441B9
006D728
1F374DB
0072A36
1E94BB6
1F6CC74
00C0B56
015AD40
000ACE7
1FCC9F8
1E526B5
0073D2B
1EE8656
1FE9D70
1E84AE0
1FAB917
1FED9D8
1F7224C
1FE164F
1F2ECF6
1EA0173
1E0024D
1F4B383
00C8FDB
1F12377
1FE731C
00535FE
1F7AA2A
1E8CA5B
1F537E0
00F0325
1F11A93
1F69ED4
1F165C4
00C987F
0046BE6
0117968
1F7FACF
1F81981
1F17E6F
00DA928
1F50567
013DE0C
00E1844
1EC97D3
1EC05E8
1F9CBE1
1FF7D8F
00B8238
1F7BE9C
008B4FF
00554FD
010AE42
1EE7CE3
1FFEAC2
1F09DA9
005F4BB
1F73FAD
009BE9D
00501B7
0089ECC
1F1A634
00147BC
0064933
1F42BA1
1FDC056
1F1D5DB
1FC570D
007F559
00572F2
00E7A9E
1DC137F
00BDB1A
00DAF2B
1FA8AD2
1E793D0
009B149
1FD891A
1EC4FAC
1F7ABA3
002A127
01CBA66
00EAFD0
01C0C4A
00D6490
0046F3A
0144930
00C46AF
1F66C9A
0070CF2
004871F
010FD60
1F6537A
1EB430C
1FF6B72
1F7EE31
00A5128
010AB67
1EA7C6B
1FEA7F7
007C119
0045D55
1FAEDA5
00B4A57
000F2F4
01C11F5
1ED02A5
1F25E8B
1F34FB2
00FD00C
1F9D9B0
1FDF902
1E91088
1F3D37C
1EF8451
012E1C6
0061EA8
013EFFA
01225DA
1FAF5E3
1F49E2E
1EE83D4
00E46B1
0090BEB
00EEB84
1F9D0A5
0054146
1FD20D3
00E05D7
1F0395C
1FAFE1D
000953C
1FE3A7F
00D6466
1F9FC8B
0205248
0050B15
011801B
1E02A35
1F0113E
1FD3583
00C20F3
1FC070E
00DC9D6
1FBB169
00623DA
0142DFE
0054E16
00C5AE6
1F6047C
00AF02C
1EC6D29
1ECFB79
1FB0F76
00E8D0B
1ECC88E
012D017
1F5ADAF
1FFED70
1FDEBBC
004E098
1F7E2ED
1F0292A
00BD575
002DCB1
00D16AB
1E778B9
0166AEC
0010B04
003846A
1E6B2F5
0053CC7
1F329AA
00B52E0
012BADA
00D6F35
1ECA21B
01C5C76
1FF48C7
1F7675B
004B6A8
1EEC706
0126A24
006E787
1ED8F3A
00FC2AD
1ED3F96
00D47BC
0145EA3
1FD530A
00B5AE3
1FB9606
006F870
1FEEBAB
00EB9FE
013D316
001A480
1F4FC27
008CF31
005F8F3
1FD6435
01361E0
01B5D69
1EC1190
1ED3942
1F12740
1F72BFB
00042AC
1F80CE3
1F4F343
1F80397
1F0BBC7
001A69B
1EC82ED
0038117
00F2CD1
1FC1F6A
1EBBB69
00A991B
1ED7C46
004589E
009C1E0
1EE0053
1EA059D
00802A4
1F15D26
001E003
00792FD
1E93E6F
1FDA715
0150D95
00105DB
1F59B1D
0108B5F
1E359E1
01A2A1D
002BF54
1F14E1E
0054D5A
1FE4239
1EB8F58
1ED2D98
00452D8
1E807D9
1EF1742
1E5AC47
00E0AE3
004C3F4
013B0A8
1EC2C40
1F2E5F7
0143C3F
1ED3DDF
00D3782
1FB7EF1
1F46C6E
01DD814
1FD4FFE
0006E0E
1FE0432
000E879
00FB7C5
1EA67C7
01051CE
1EFCF3F
0103BC9
1F7D503
1FFE88B
1F43D45
1F19694
1FC9A18
1EAB7D3
1F2AA2F
0097344
000AFCF
01C3273
0039987
02CF529
1EC76FA
0038EF7
1FA72AF
1F07AB2
1FA300D
002B130
1FB3A7F
1EEB913
1F50089
1FC9A0F
1F03146
1F423CE
00D65D5
00240E0
1F878A2
1EC85C9
1F349CB
021B361
1FADA82
0223A62
1F3AD12
1F8BE5C
1EABF51
0072CD4
00EADA3
000D2B1
1F572DE
1EC3413
00248D8
010F430
1F829AA
0162F92
1F66C80
1FE5F80
0078139
1F25829
1F5B404
1E88CA8
1FF4111
1F90AB9
002339E
1F9DEF3
007E1BB
0098630
1F6143D
1F78CED
1E86276
1FE609C
0117D13
0290A5E
1ECADD1
1EE8166
1E7582D
0079DE3
1FD94F5
1F57451
1F5ECB7
1F11EBF
1ED5766
009B766
0124E0E
00CF6C1
00BB3FB
1DF1A2D
1F3BC94
00B10A4
00997DC
1FC03DE
005DFB7
010C773
00D5A0F
1F2C3A9
00A4D21
1FA8D56
1FCAA86
1FAF5CA
1F9CE99
1F1E83B
005AAAC
00873DB
00AEF21
1FC28C3
1F03784
1F37DD2
0057864
0052519
00C5E87
1F74658
006E1B5
1F46A12
1F267DD
01B721D
1F27982
1FE7E89
1F287A3
1ED4893
1E98EFC
00B7B2C
1FB62F3
008ACEB
1FA385A
1E8F3AC
1FE3692
1EC6C1A
1EEBF7A
0076DA9
0086B55
00AFEC7
00D11DB
0035CAF
1EB81A8
1F2E8AB
01EBC38
1E87A25
0147940
0000A50
0139C77
007542C
1EB3860
0111AF3
1FA585A
1EC9647
0095AFE
1FE69E8
015E8F2
1FB25C2
00E8B80
1EC3A00
00F2B96
1FEDD16
1F2B7FB
1F0283C
1F95E47
00087FD
1F433C1
1FD9B40
