04D9BFA
7E48D7A
0E90E50
6FEF444
6AFEA9B
7427337
0821072
6397E4D
11D3F22
25117B8
7D5B72C
7B718C7
043528F
7A9B35E
1016435
7B0C5C3
7D95D8C
034BA35
0C58952
777272A
7C72648
0AA1F87
7F03FA6
7E244CE
7428D4D
0586D3C
0253D4F
0496C96
7CE5D0F
02C2635
0E5C54B
03756DE
0170A72
0428313
7F65583
7D36E9B
0532E93
7C55767
7F5CF60
7AB1F13
7A86707
7B34DCE
7D75AD7
7EA2B99
0587EEE
7F9E192
01FD585
7E0D851
00C341B
038BA67
7EC905C
036BDAE
05A41AF
056BFAA
02D9D34
04F7EA2
03F4763
7A53D81
7A837E7
01929C4
7C76CF2
00F01F7
7B3AC93
016DD0C
7A447E3
033CB20
7AD8FA3
7F13237
7B1DC11
00636F1
7B3430D
022F95C
0464F5E
0435558
7A91FE0
7C6BAA6
0546020
044652E
7EC5B4B
0114CFB
0145720
02AD341
01FEC46
0013A0A
7B6D39A
7E4E042
01024A1
01060D4
029C714
0364CC0
04D8ABA
048386E
7DC5AA0
0511A41
0406F35
040EDC6
7EFC179
7FF56C9
7EC04C3
0473C37
7BD35D3
7E4B39A
7C38EB8
7E9C9CF
7EA3FFA
03B625A
009EFC1
01C5E21
7EA630A
7CDF9C5
0235D90
04C7CED
023D0F9
7A69837
063E3C9
7F05A7B
751470C
7E9E5C8
026FD4C
7886BC8
0B747ED
061F6D3
7DC7C01
7DF0061
011ADD1
7B1CDB9
026224E
04E7AA0
7A65470
04D4586
02789DB
7D3843B
7B6E199
7FB3B88
7D0FA8E
7D2E799
7DAECFF
7FBA8DE
01A7F64
03F9119
7B8AFE5
7FA9D69
018F481
011471A
00C9276
01B0590
6F36A3E
0A4E9D5
0B4922B
71D87D8
0B0B345
7970CB4
03D8491
05D9A77
7D447EF
7C502B1
7FF60B9
7C30A1C
78B770D
7C275B5
7D5D21B
0441489
050AC37
00C9835
7A9301D
7E35017
052D872
0195CBA
7FB3DF8
7D9B572
7D4E6DD
7E17F2E
7A816BF
0059433
7EE4941
00ACFA5
7CD6C72
7DBE421
60434DE
226189F
19F0A1B
5E0C1F7
10B1C46
7653C9E
13647DF
05F2C2D
7BDCCF1
7EB026B
039A0FC
7EB790C
619353E
7B896B1
7AB8CE1
04B7986
7D6E7F0
7FD9A60
0202763
7D09CFE
7F246E2
0550F4E
7F1ED1C
7DCBA4E
043D029
035015E
7F9C60A
7E665AD
03B6A89
7CE7696
7C3680A
7B3F69A
7CAA668
7EEA78D
0437504
7E93945
7E1C3DF
034A528
7E140FE
056E656
0104805
7ECD329
02D9933
7E5EAD3
02417A6
0469A21
0554C7B
7B0BC74
01683B3
041BFB8
01CE8B0
0268FF3
7D800B9
03B1E7C
04F5992
7DB0D81
7C53151
035B886
03AD397
003F130
049BBF5
03E06F7
021438D
018C144
7D93B4C
7D77477
02FFCA6
003372B
01600F2
7ECE871
7E18E2A
7C04F03
7F83814
00CB452
7CB4207
7B8D026
0492FD6
7B0B7CB
03719DB
7B7078E
7E860B3
7F2EB97
0157318
7B22EC2
7C3B262
0125DCF
00825E8
03F89DE
7FEE6D5
7C5CFFD
7B757AC
02BB4FB
0570E90
7E573BE
7DA3E97
7CA3983
7F160E7
02CEE31
7B91B07
7F334D1
042E886
7B4FE3E
0094FB3
00D401E
0210EAE
05A2925
7CC98A4
02C8F69
0316B58
02E1B01
7E4C04A
7DF3E5B
7B9FBEE
7DA83BA
00B0027
0420DC5
7BFFFDD
0053B38
7DBDBC0
7D66924
04C5E8A
02D9F16
00C8110
014BB35
7A8B9AE
7D406A7
000CA15
03B755D
054EB56
053AB73
7B999DF
7B2E5CF
7BB6627
7E38E32
02E1CE0
03EEEC3
04933B4
7F9151F
7FB30B3
007C433
7DF32D1
7DC0E23
0137E8F
7D69652
00FA437
7DB2844
7EC9258
059C945
0121426
052DADD
04110CA
03A5E82
7F7E7FD
7AF7C4C
0122A75
03E422A
02217D7
7AC9EB6
7ECFEB2
7A6EF59
7F136F8
7AA2AB2
7BFB503
047C71E
7B62F09
7AE3AB9
01068C1
7E2A56E
0289C50
044F7AA
7E69246
006BAC6
7D222C9
7D0D6F2
7B06908
7F0BF2C
048EA72
058BC69
03A157A
0606E52
0129525
06865CB
7E521D0
00D4956
7D68956
7D88953
7A7AD94
7C912CB
0200C8F
7CC8111
04262A7
7B3313B
0410A97
7A70877
7F64F24
00EB81D
0536D18
04F8DA6
0172568
7C88410
0402D5C
7B4381A
03AFE88
7AEC233
7B02A86
7E5E27A
050B708
0526271
7F6FCB1
7DE99B3
02D54DC
047D104
04E49B1
0273D25
052F4F6
01479C4
00C3056
7BC27DC
00E1A04
04BEBD8
7AD9A86
03DCFCB
01789D7
007F940
007B032
7E9C3DF
796E00D
726AE5A
0AA4FAB
73F0569
07A7714
7A09265
012C792
016C037
00DE269
7C326E1
7E928F5
7B3A962
054F294
7B4C268
7FC7AC7
7C51D83
0270D4A
0413854
7AAB4FE
0487459
056FCAD
7FE741D
0560C8C
042789A
05108E8
7D8B320
7E8FDDE
01490FE
0070D01
7FDF155
0446360
7AF6493
013963F
7D081B5
025167A
05593C6
02FF03D
7C9D809
036554D
7B2330B
047D0C9
028ECE0
7D2FB7A
015CAA2
7D2A830
7BD9EC7
074B53E
747D9AC
74AE6C2
04C22F1
03A5491
7BDD879
055B532
039AC23
7BD73AC
01237A9
7E364B8
03915C9
029C611
017AD0E
7CB1A60
025A773
7EFFD88
13EC81D
7973562
6F8B94B
034BC9C
00C4241
0CEE316
6B83C44
046E937
033B748
7D2C71C
04936C5
6D1F33A
00B82C7
7E797C1
0259A79
7DD445C
7CF44CC
7B7F518
7AE03FC
7DEBC38
05033F4
006BA1A
058A91C
7DFF3F1
009161C
035A89F
7D37129
035F092
7FD53AA
00A6FD8
7EC6728
7CEF904
0487C76
00EEB43
7B2EBA5
06359C1
7E2F551
0785DC2
7EF1AEE
021216E
005858F
7E9330C
04EC507
0238F2F
7CA9A5C

